#pragma once

#include <stdint.h>

// Auto-generated by mlp.py — do not edit by hand.
// Re-run mlp.py to regenerate after retraining.
static const uint8_t mlp_model_tflite[] = {
    0x1C, 0x00, 0x00, 0x00, 0x54, 0x46, 0x4C, 0x33, 0x14, 0x00, 0x20, 0x00,
    0x1C, 0x00, 0x18, 0x00, 0x14, 0x00, 0x10, 0x00, 0x0C, 0x00, 0x00, 0x00,
    0x08, 0x00, 0x04, 0x00, 0x14, 0x00, 0x00, 0x00, 0x1C, 0x00, 0x00, 0x00,
    0x8C, 0x00, 0x00, 0x00, 0xE4, 0x00, 0x00, 0x00, 0x20, 0x1A, 0x00, 0x00,
    0x30, 0x1A, 0x00, 0x00, 0xB4, 0x21, 0x00, 0x00, 0x03, 0x00, 0x00, 0x00,
    0x01, 0x00, 0x00, 0x00, 0x04, 0x00, 0x00, 0x00, 0x8A, 0xE5, 0xFF, 0xFF,
    0x0C, 0x00, 0x00, 0x00, 0x1C, 0x00, 0x00, 0x00, 0x3C, 0x00, 0x00, 0x00,
    0x0F, 0x00, 0x00, 0x00, 0x73, 0x65, 0x72, 0x76, 0x69, 0x6E, 0x67, 0x5F,
    0x64, 0x65, 0x66, 0x61, 0x75, 0x6C, 0x74, 0x00, 0x01, 0x00, 0x00, 0x00,
    0x04, 0x00, 0x00, 0x00, 0x90, 0xFF, 0xFF, 0xFF, 0x0E, 0x00, 0x00, 0x00,
    0x04, 0x00, 0x00, 0x00, 0x08, 0x00, 0x00, 0x00, 0x6F, 0x75, 0x74, 0x70,
    0x75, 0x74, 0x5F, 0x30, 0x00, 0x00, 0x00, 0x00, 0x01, 0x00, 0x00, 0x00,
    0x04, 0x00, 0x00, 0x00, 0xA2, 0xE6, 0xFF, 0xFF, 0x04, 0x00, 0x00, 0x00,
    0x0C, 0x00, 0x00, 0x00, 0x6B, 0x65, 0x72, 0x61, 0x73, 0x5F, 0x74, 0x65,
    0x6E, 0x73, 0x6F, 0x72, 0x00, 0x00, 0x00, 0x00, 0x02, 0x00, 0x00, 0x00,
    0x34, 0x00, 0x00, 0x00, 0x04, 0x00, 0x00, 0x00, 0xDC, 0xFF, 0xFF, 0xFF,
    0x11, 0x00, 0x00, 0x00, 0x04, 0x00, 0x00, 0x00, 0x13, 0x00, 0x00, 0x00,
    0x43, 0x4F, 0x4E, 0x56, 0x45, 0x52, 0x53, 0x49, 0x4F, 0x4E, 0x5F, 0x4D,
    0x45, 0x54, 0x41, 0x44, 0x41, 0x54, 0x41, 0x00, 0x08, 0x00, 0x0C, 0x00,
    0x08, 0x00, 0x04, 0x00, 0x08, 0x00, 0x00, 0x00, 0x10, 0x00, 0x00, 0x00,
    0x04, 0x00, 0x00, 0x00, 0x13, 0x00, 0x00, 0x00, 0x6D, 0x69, 0x6E, 0x5F,
    0x72, 0x75, 0x6E, 0x74, 0x69, 0x6D, 0x65, 0x5F, 0x76, 0x65, 0x72, 0x73,
    0x69, 0x6F, 0x6E, 0x00, 0x12, 0x00, 0x00, 0x00, 0x38, 0x19, 0x00, 0x00,
    0x30, 0x19, 0x00, 0x00, 0xE0, 0x18, 0x00, 0x00, 0x48, 0x18, 0x00, 0x00,
    0x34, 0x18, 0x00, 0x00, 0xE4, 0x17, 0x00, 0x00, 0xD4, 0x0F, 0x00, 0x00,
    0xC4, 0x01, 0x00, 0x00, 0x44, 0x01, 0x00, 0x00, 0xC4, 0x00, 0x00, 0x00,
    0xBC, 0x00, 0x00, 0x00, 0xB4, 0x00, 0x00, 0x00, 0xAC, 0x00, 0x00, 0x00,
    0xA4, 0x00, 0x00, 0x00, 0x9C, 0x00, 0x00, 0x00, 0x94, 0x00, 0x00, 0x00,
    0x74, 0x00, 0x00, 0x00, 0x04, 0x00, 0x00, 0x00, 0x66, 0xE7, 0xFF, 0xFF,
    0x04, 0x00, 0x00, 0x00, 0x60, 0x00, 0x00, 0x00, 0x0C, 0x00, 0x00, 0x00,
    0x08, 0x00, 0x0E, 0x00, 0x08, 0x00, 0x04, 0x00, 0x08, 0x00, 0x00, 0x00,
    0x10, 0x00, 0x00, 0x00, 0x28, 0x00, 0x00, 0x00, 0x00, 0x00, 0x06, 0x00,
    0x08, 0x00, 0x04, 0x00, 0x06, 0x00, 0x00, 0x00, 0x04, 0x00, 0x00, 0x00,
    0x01, 0x00, 0x00, 0x00, 0xEA, 0x03, 0x00, 0x00, 0x0C, 0x00, 0x18, 0x00,
    0x14, 0x00, 0x10, 0x00, 0x0C, 0x00, 0x04, 0x00, 0x0C, 0x00, 0x00, 0x00,
    0x9D, 0xE8, 0x2F, 0x8A, 0x2A, 0x95, 0x11, 0x5B, 0x02, 0x00, 0x00, 0x00,
    0x02, 0x00, 0x00, 0x00, 0x04, 0x00, 0x00, 0x00, 0x06, 0x00, 0x00, 0x00,
    0x32, 0x2E, 0x32, 0x31, 0x2E, 0x30, 0x00, 0x00, 0xD2, 0xE7, 0xFF, 0xFF,
    0x04, 0x00, 0x00, 0x00, 0x10, 0x00, 0x00, 0x00, 0x31, 0x2E, 0x31, 0x34,
    0x2E, 0x30, 0x00, 0x00, 0x00, 0x00, 0x00, 0x00, 0x00, 0x00, 0x00, 0x00,
    0x30, 0xE0, 0xFF, 0xFF, 0x34, 0xE0, 0xFF, 0xFF, 0x38, 0xE0, 0xFF, 0xFF,
    0x3C, 0xE0, 0xFF, 0xFF, 0x40, 0xE0, 0xFF, 0xFF, 0x44, 0xE0, 0xFF, 0xFF,
    0x06, 0xE8, 0xFF, 0xFF, 0x04, 0x00, 0x00, 0x00, 0x70, 0x00, 0x00, 0x00,
    0x7C, 0x0F, 0xF6, 0x41, 0x03, 0xA7, 0xAA, 0xC0, 0xCC, 0xEE, 0xC9, 0xBD,
    0x40, 0x4E, 0x49, 0xBE, 0xA3, 0x41, 0xA0, 0xBC, 0xF8, 0x97, 0xB9, 0xBE,
    0xEC, 0x04, 0x7C, 0xBE, 0x3F, 0x4E, 0xA2, 0xBF, 0x8D, 0xED, 0x9F, 0xBF,
    0xA9, 0x60, 0xC7, 0xBF, 0xD4, 0xC5, 0xCD, 0xBF, 0x3B, 0x3C, 0x61, 0xC0,
    0x6E, 0x48, 0xC8, 0xC0, 0x61, 0x9A, 0x19, 0xC1, 0x10, 0x62, 0x0A, 0xC1,
    0x17, 0x5C, 0x51, 0x42, 0xCD, 0xCC, 0x7A, 0xBF, 0xBF, 0xA8, 0xE2, 0x3F,
    0x8F, 0x87, 0x5B, 0xC0, 0xFC, 0xFD, 0x94, 0x3F, 0xE6, 0x81, 0x23, 0xC1,
    0xA1, 0x10, 0x3F, 0x3E, 0x2E, 0x4C, 0x45, 0xC0, 0x5D, 0xD5, 0xFF, 0xBE,
    0x34, 0xED, 0x98, 0xC1, 0x5D, 0x29, 0xDB, 0xC1, 0x3B, 0xA8, 0x05, 0xC2,
    0xB3, 0x30, 0x18, 0x41, 0x82, 0xE8, 0xFF, 0xFF, 0x04, 0x00, 0x00, 0x00,
    0x70, 0x00, 0x00, 0x00, 0x48, 0xDC, 0x43, 0x3E, 0xCE, 0x32, 0xCC, 0x3C,
    0x98, 0xF0, 0xEC, 0x3E, 0xEC, 0x77, 0xB2, 0x3E, 0x4A, 0x1F, 0xC4, 0x3E,
    0x67, 0xF7, 0xB2, 0x3E, 0xBE, 0x72, 0x81, 0x3E, 0xA8, 0x03, 0xF3, 0x3D,
    0x73, 0x42, 0x02, 0x3E, 0x1F, 0x87, 0xD7, 0x3D, 0xFF, 0x5F, 0x8F, 0x3D,
    0x06, 0xB7, 0x85, 0x3D, 0x0D, 0x7B, 0x4F, 0x3D, 0x35, 0x23, 0x07, 0x3D,
    0xEA, 0x6F, 0xF9, 0x3C, 0xA4, 0xCF, 0x23, 0x3B, 0xCB, 0x22, 0xCE, 0x3C,
    0x29, 0xFE, 0xC0, 0x3C, 0x3B, 0x18, 0xBD, 0x3C, 0xC5, 0x11, 0xA8, 0x3C,
    0x09, 0xD2, 0x41, 0x3C, 0x17, 0x07, 0x25, 0x3C, 0x21, 0xBB, 0x13, 0x3C,
    0x29, 0x97, 0xD4, 0x3B, 0xCE, 0xA9, 0xA8, 0x3B, 0x00, 0xAB, 0x88, 0x3B,
    0x08, 0xD5, 0x3D, 0x3B, 0x46, 0x10, 0x21, 0x3B, 0xFE, 0xE8, 0xFF, 0xFF,
    0x04, 0x00, 0x00, 0x00, 0x00, 0x0E, 0x00, 0x00, 0xC9, 0x81, 0x2F, 0x3C,
    0xB6, 0x92, 0x4A, 0xBD, 0xD3, 0x81, 0x6B, 0xBE, 0xA0, 0x38, 0x64, 0x3E,
    0x2F, 0x4C, 0x84, 0xBE, 0xD4, 0x51, 0x5E, 0xBE, 0x7C, 0x29, 0x2C, 0xBE,
    0x68, 0xD5, 0x63, 0x3D, 0xBB, 0x1A, 0x53, 0x3C, 0xF0, 0x3E, 0x17, 0x3E,
    0xE5, 0x28, 0x05, 0xBE, 0xC8, 0x7A, 0xF9, 0x39, 0x25, 0x1E, 0x42, 0xBE,
    0x92, 0x3C, 0xA0, 0xBE, 0x8D, 0x3F, 0x12, 0x3E, 0x7A, 0x36, 0x0E, 0x3E,
    0x80, 0x7D, 0xA5, 0x3D, 0x39, 0x2C, 0x54, 0x3E, 0x74, 0x79, 0x06, 0xBD,
    0xBA, 0x82, 0x1E, 0x3E, 0xBA, 0x08, 0x1E, 0x3E, 0xBA, 0x52, 0xFF, 0xBC,
    0x57, 0xE3, 0x53, 0x3E, 0xBF, 0x6E, 0x28, 0x3E, 0xAD, 0x29, 0x1B, 0x3E,
    0xD9, 0xE6, 0x80, 0xBE, 0x36, 0x60, 0x0E, 0x3E, 0xFA, 0xCB, 0xB6, 0x3D,
    0xEB, 0x6B, 0xAC, 0xBD, 0xB6, 0x89, 0x5F, 0xBE, 0xF7, 0x51, 0x9E, 0xBE,
    0x30, 0x74, 0x8B, 0xBE, 0x5B, 0x8D, 0x0C, 0x3E, 0xF5, 0x10, 0x6D, 0xBE,
    0x4C, 0x45, 0x7A, 0xBE, 0x9F, 0x3A, 0x1B, 0x3C, 0x2B, 0xC5, 0xA4, 0x3E,
    0xDD, 0x13, 0xB3, 0xBD, 0x39, 0x9E, 0x73, 0x3E, 0x97, 0xD5, 0x33, 0xBE,
    0xF8, 0xCF, 0xE9, 0xBD, 0xA2, 0x55, 0x84, 0x3E, 0x44, 0xC8, 0xE5, 0x3C,
    0x81, 0x74, 0xA2, 0xBE, 0x95, 0x22, 0xBD, 0xBD, 0xC3, 0x24, 0xCA, 0x3D,
    0xF3, 0x2B, 0x9A, 0xBE, 0xDE, 0xE9, 0xC2, 0xBD, 0xA3, 0x61, 0x9A, 0x3E,
    0xAD, 0xF0, 0x1D, 0xBE, 0xCE, 0xB9, 0x3C, 0xBE, 0x16, 0x9E, 0xC2, 0x3D,
    0x55, 0x63, 0x98, 0x3D, 0x47, 0x6D, 0x6E, 0xBD, 0x1B, 0x21, 0x0F, 0x3E,
    0x24, 0x59, 0x95, 0xBE, 0x09, 0xA1, 0xF1, 0x3C, 0x63, 0x88, 0x61, 0xBE,
    0xB4, 0x20, 0x09, 0xBE, 0x6F, 0xE1, 0x92, 0xBE, 0x5F, 0xEE, 0x65, 0xBE,
    0x14, 0x49, 0x8A, 0xBB, 0x24, 0xFA, 0x84, 0x3C, 0x3A, 0x2B, 0x72, 0xBE,
    0x2C, 0x03, 0x31, 0xBE, 0x37, 0xDE, 0x89, 0x3E, 0x63, 0x8C, 0x12, 0x3E,
    0xF2, 0x67, 0x80, 0x3D, 0x4D, 0x02, 0x75, 0x3D, 0x28, 0x0A, 0x4B, 0xBE,
    0x03, 0x40, 0xC6, 0x3E, 0x41, 0xE0, 0x21, 0xBE, 0x48, 0x2B, 0x5A, 0x3E,
    0x89, 0xD6, 0xCF, 0x3D, 0x4A, 0x2E, 0x1D, 0xBD, 0x48, 0xCD, 0x76, 0xBD,
    0x5C, 0xD5, 0x8A, 0x3C, 0xCF, 0x16, 0x7E, 0x3D, 0x0E, 0x19, 0xBD, 0xBD,
    0xA0, 0x3B, 0xA3, 0x3E, 0x31, 0x60, 0x23, 0xBD, 0x0E, 0xE2, 0x11, 0x3E,
    0x19, 0x79, 0x38, 0xBE, 0x04, 0x40, 0xE1, 0xBC, 0x4B, 0x08, 0x2A, 0x3C,
    0x05, 0xB3, 0xB9, 0xBD, 0x0A, 0x56, 0x23, 0x3E, 0xE1, 0xAD, 0x1B, 0xBE,
    0x94, 0xD3, 0x1D, 0x3E, 0x9D, 0x20, 0x8B, 0x3E, 0x17, 0xDF, 0x4E, 0x3E,
    0xEE, 0x57, 0x12, 0xBD, 0xEA, 0x89, 0x8E, 0xBE, 0x5D, 0xBD, 0x63, 0x3E,
    0x1F, 0x87, 0x99, 0xBE, 0xC4, 0xAB, 0x03, 0x3E, 0xD4, 0x2A, 0x90, 0x3E,
    0xBD, 0xF4, 0xF2, 0x3C, 0x56, 0x85, 0xFF, 0x3D, 0x45, 0xA9, 0x60, 0x3E,
    0xFD, 0x34, 0x5C, 0x3E, 0x4C, 0x41, 0xA0, 0xBC, 0xCB, 0x94, 0x61, 0x3E,
    0x62, 0x65, 0xE4, 0xBD, 0xBD, 0x20, 0x25, 0xBE, 0x5E, 0xAD, 0x7A, 0x3E,
    0xCA, 0x24, 0x2D, 0x3E, 0x5B, 0xC5, 0xA3, 0xBE, 0x6F, 0x89, 0xBA, 0xBD,
    0xE7, 0x83, 0xC2, 0x3D, 0x15, 0xD8, 0xD6, 0x3D, 0xD4, 0x0D, 0x26, 0x3B,
    0xE2, 0x5B, 0xCF, 0x3D, 0x57, 0xD9, 0x99, 0xBD, 0x02, 0xF8, 0x87, 0x3D,
    0x7F, 0xAE, 0x92, 0x3E, 0x60, 0xD2, 0x58, 0xBD, 0x95, 0xE3, 0xEA, 0x3C,
    0xE8, 0xB1, 0xA1, 0xBE, 0x1A, 0x59, 0x08, 0xBE, 0x21, 0x39, 0xA3, 0x3C,
    0x85, 0x51, 0xDD, 0xBD, 0x62, 0x89, 0x1A, 0x3E, 0xA9, 0x9F, 0x4D, 0x3C,
    0x82, 0xF0, 0x06, 0xBE, 0xB2, 0x79, 0x0C, 0x3D, 0xE5, 0x15, 0x07, 0xBE,
    0x58, 0x4E, 0xAA, 0x3D, 0x57, 0x24, 0x68, 0x3E, 0x26, 0xF3, 0xEF, 0x3D,
    0xEE, 0x8B, 0xD8, 0xBD, 0xC5, 0xFD, 0x22, 0x3E, 0xB9, 0x32, 0xA8, 0x3E,
    0x7D, 0x2F, 0x7C, 0x3E, 0xFF, 0x04, 0x44, 0xBE, 0x3E, 0xDC, 0x7B, 0xBD,
    0x04, 0xA3, 0x92, 0xBE, 0x00, 0xB8, 0x5A, 0xBE, 0x59, 0x80, 0xBC, 0x3D,
    0x37, 0xF4, 0xBA, 0xBE, 0x23, 0x8F, 0x23, 0x3E, 0x5C, 0x6D, 0x95, 0xBB,
    0x97, 0xBC, 0x48, 0x3E, 0x7B, 0x7B, 0x89, 0xBE, 0x1F, 0x31, 0x86, 0xBC,
    0x50, 0x0E, 0x3A, 0xBC, 0xC3, 0xE4, 0x3C, 0x3E, 0x8C, 0x84, 0xA0, 0xBD,
    0x05, 0x07, 0x57, 0xBC, 0x85, 0x60, 0x72, 0x3E, 0x38, 0x80, 0xC5, 0xBC,
    0x2D, 0xB8, 0x82, 0x3E, 0x45, 0x92, 0x15, 0xBD, 0x1D, 0xB9, 0x2B, 0x3E,
    0xE4, 0x2E, 0xB5, 0xBD, 0xEE, 0xD3, 0x8B, 0x3E, 0x00, 0x73, 0x3F, 0xBE,
    0xA7, 0x9D, 0x02, 0x3E, 0xF5, 0xD8, 0xBE, 0x3D, 0xE4, 0x8D, 0x49, 0x3E,
    0x7E, 0x12, 0x25, 0xBE, 0x4A, 0x25, 0x8C, 0xBE, 0x82, 0x59, 0xAE, 0x3C,
    0x1C, 0x70, 0x87, 0x3A, 0xA8, 0x4D, 0x9B, 0xBE, 0x1D, 0x8B, 0x2A, 0xBE,
    0xC3, 0xAE, 0x23, 0x3E, 0x2E, 0x0B, 0x8B, 0x3E, 0xB0, 0x4C, 0xFA, 0x3D,
    0x5A, 0x3E, 0x86, 0x3E, 0x53, 0xDA, 0xCC, 0xBC, 0xD1, 0x04, 0x2C, 0x3D,
    0xC9, 0xC8, 0x83, 0x3E, 0x8A, 0xEB, 0x2D, 0x3E, 0x1F, 0x94, 0xEC, 0xBC,
    0x70, 0x9F, 0x54, 0xBD, 0x7D, 0xE3, 0x91, 0xBE, 0xD2, 0xBE, 0x7D, 0x3C,
    0x93, 0x08, 0x9E, 0x3D, 0x9F, 0x1C, 0x8F, 0x3E, 0x89, 0x84, 0xC2, 0x3D,
    0xCD, 0xBD, 0x00, 0x3E, 0xF4, 0xFF, 0xA2, 0xBC, 0x29, 0x65, 0x84, 0x3E,
    0xE8, 0x70, 0x45, 0xBD, 0x53, 0xE5, 0x9C, 0xBD, 0x26, 0x10, 0xAC, 0x3E,
    0x1E, 0x30, 0xB7, 0x3C, 0x60, 0x99, 0x9B, 0xBE, 0xD0, 0x45, 0xD7, 0xBD,
    0xDC, 0x56, 0x66, 0x3B, 0xE3, 0x8E, 0x6F, 0xBE, 0x32, 0x36, 0x75, 0xBD,
    0x62, 0x99, 0x44, 0x3E, 0xA9, 0x13, 0xE6, 0xBD, 0x50, 0xFA, 0xB1, 0x3D,
    0x3C, 0xC1, 0x46, 0xBD, 0x48, 0x85, 0xB0, 0x3C, 0x8D, 0xCD, 0xD0, 0xBD,
    0x34, 0xD3, 0x90, 0xBE, 0xDD, 0xBF, 0xF1, 0x3D, 0x24, 0x61, 0x95, 0x3E,
    0x1E, 0x93, 0x88, 0x3E, 0x9C, 0x5D, 0x67, 0x3E, 0x17, 0x10, 0x86, 0x3E,
    0x57, 0x3F, 0x83, 0xBD, 0x82, 0x13, 0x61, 0x3E, 0x0B, 0x0A, 0x48, 0xBD,
    0x50, 0x3A, 0x4D, 0x3E, 0x1E, 0xAF, 0x76, 0xBE, 0x20, 0x93, 0x8D, 0x3E,
    0x99, 0x35, 0x2B, 0xBE, 0xA7, 0x12, 0x02, 0x3D, 0xFC, 0xF5, 0x84, 0x3E,
    0x70, 0x55, 0xA4, 0xBD, 0x90, 0x89, 0x5E, 0xBE, 0xC6, 0xDC, 0xD3, 0x3C,
    0xA0, 0xAE, 0x33, 0xBD, 0xFC, 0x71, 0x5A, 0x3E, 0xD8, 0x29, 0x7E, 0xBD,
    0x9C, 0x28, 0x5F, 0xBE, 0x73, 0x92, 0x85, 0xBE, 0xCB, 0xA2, 0x8F, 0xBE,
    0x11, 0xA5, 0x01, 0x3E, 0xBA, 0x0F, 0xAA, 0x3E, 0x6E, 0xCE, 0x46, 0xBE,
    0x54, 0x5F, 0x2D, 0x3E, 0xF7, 0x20, 0x27, 0x3E, 0xB1, 0x57, 0x19, 0x3E,
    0xB4, 0x12, 0x81, 0x3E, 0x73, 0xC2, 0x29, 0xBE, 0x02, 0xEB, 0x3D, 0xBD,
    0xD9, 0x81, 0x7A, 0x3E, 0xCC, 0xE8, 0xC8, 0x3C, 0xB8, 0x27, 0x12, 0xBE,
    0x0E, 0x28, 0x58, 0x3E, 0x83, 0x04, 0xA1, 0x3E, 0x9E, 0xBD, 0xF2, 0x3D,
    0x35, 0x72, 0xC8, 0xBD, 0x07, 0x0D, 0x57, 0x3E, 0xE9, 0x42, 0xA4, 0xBE,
    0x28, 0xFC, 0xED, 0x3D, 0x9A, 0x3B, 0x96, 0x3E, 0xCE, 0xAC, 0xB9, 0x3E,
    0xFB, 0x87, 0xA8, 0xBE, 0xBC, 0x29, 0x04, 0xBD, 0x10, 0x86, 0xC5, 0x3D,
    0xDE, 0xCF, 0xB9, 0xBE, 0xCB, 0xA0, 0x67, 0x3E, 0xB7, 0x15, 0x9E, 0x3E,
    0x3E, 0x3A, 0x01, 0x3C, 0x81, 0xEB, 0x5D, 0x3C, 0x4F, 0xFE, 0x99, 0xBE,
    0xD1, 0x3A, 0xA3, 0x3E, 0x92, 0x27, 0xBF, 0x3D, 0x91, 0x97, 0x62, 0xBE,
    0x2E, 0xDD, 0xF0, 0xBD, 0x50, 0x3F, 0xD8, 0xBD, 0xD7, 0x9C, 0x8B, 0x3E,
    0x59, 0xEA, 0x24, 0x3E, 0x72, 0x35, 0xA1, 0x3E, 0xA5, 0x33, 0xFB, 0x3D,
    0x1A, 0xF6, 0xE6, 0xBD, 0xBB, 0x93, 0x5A, 0x3E, 0xF9, 0x26, 0x48, 0xBE,
    0xD4, 0xEC, 0x8C, 0xBE, 0x9A, 0xE0, 0x87, 0xBE, 0xAE, 0x72, 0x7E, 0x3E,
    0xFF, 0x70, 0x47, 0xBE, 0x6E, 0x6B, 0xFB, 0xBB, 0xFB, 0x35, 0x8C, 0x3E,
    0xF2, 0x99, 0x87, 0xBC, 0xE2, 0x1C, 0x3B, 0xBE, 0xA1, 0x48, 0x20, 0xBE,
    0x0B, 0x59, 0x7A, 0xBE, 0x27, 0xC3, 0x47, 0x3E, 0xA5, 0x37, 0xB4, 0x3D,
    0x66, 0xE5, 0x31, 0xBD, 0xD8, 0x1F, 0x7A, 0xBE, 0xAC, 0xFE, 0x80, 0x3E,
    0xA7, 0x6A, 0x4C, 0x3E, 0xDE, 0xFD, 0x9D, 0x3E, 0xA9, 0xBA, 0xEE, 0x3D,
    0x6B, 0xB1, 0x71, 0x3E, 0xCE, 0x9F, 0x89, 0x3E, 0x9F, 0xA7, 0x3A, 0x3E,
    0xD1, 0x06, 0x8A, 0x3E, 0x86, 0x0C, 0xBA, 0x3E, 0xDD, 0x53, 0x81, 0x3E,
    0x18, 0x50, 0x31, 0x3D, 0xB0, 0x5E, 0x8A, 0x3E, 0xD0, 0x78, 0x50, 0x3E,
    0x95, 0x46, 0xAF, 0xBC, 0x32, 0xC7, 0xF5, 0xBC, 0x3B, 0xC4, 0x42, 0xBD,
    0x70, 0xA4, 0x11, 0xBD, 0x95, 0x0D, 0xA2, 0xBE, 0x77, 0x32, 0xFD, 0xBC,
    0x83, 0x3F, 0x59, 0x3E, 0x42, 0xCF, 0x32, 0x3E, 0x0B, 0xA7, 0xEF, 0x3D,
    0xAC, 0x27, 0x2A, 0xBE, 0xD2, 0x06, 0x8D, 0xBE, 0x01, 0x3D, 0x8B, 0xBE,
    0x21, 0x8D, 0x56, 0xBE, 0xF5, 0xA8, 0xF5, 0x3D, 0x41, 0xB6, 0x96, 0xBD,
    0x4F, 0x02, 0x12, 0x3E, 0x84, 0x4D, 0x47, 0xBE, 0x87, 0xE5, 0x11, 0xBE,
    0xFD, 0x9B, 0x3A, 0xBE, 0x2C, 0x20, 0x1C, 0x3E, 0xDD, 0x67, 0x00, 0xBE,
    0x57, 0xB2, 0x6B, 0x3D, 0x4A, 0x2C, 0xB9, 0x3D, 0xC4, 0x1C, 0xB7, 0xBD,
    0x47, 0x74, 0x8F, 0x3B, 0xC6, 0x12, 0x5E, 0xBE, 0xA8, 0x34, 0x18, 0x3D,
    0x20, 0x74, 0x55, 0xBE, 0x0D, 0xAA, 0x44, 0xBE, 0x38, 0xA3, 0x31, 0x3B,
    0x82, 0x5A, 0xA4, 0x3D, 0x4F, 0xB8, 0x1D, 0x3E, 0x58, 0x7D, 0x26, 0x3E,
    0x25, 0xC7, 0xB1, 0x3D, 0x68, 0xA3, 0xEA, 0x3D, 0xC8, 0x08, 0xE2, 0x3C,
    0x4E, 0xFD, 0xFB, 0x3D, 0xE3, 0xDA, 0xA6, 0x3E, 0x28, 0x4C, 0x78, 0x3E,
    0x97, 0x48, 0x3B, 0xBE, 0xD5, 0xB6, 0x92, 0xBD, 0xD5, 0xD8, 0x85, 0xBB,
    0xE8, 0x29, 0xAC, 0x3D, 0x0B, 0xFB, 0x8E, 0x3E, 0xAC, 0x31, 0x94, 0xBD,
    0xC1, 0xC6, 0x3B, 0x3D, 0xBA, 0xE2, 0x8C, 0xBD, 0x00, 0xED, 0x4F, 0xBE,
    0xB9, 0xE2, 0x85, 0xBE, 0xFE, 0x2B, 0x14, 0x3E, 0xE4, 0x3C, 0x7A, 0x3E,
    0x70, 0x55, 0xB9, 0x3E, 0x03, 0x14, 0xA2, 0x3E, 0x5A, 0xEA, 0x83, 0x3E,
    0xE8, 0xF3, 0xD0, 0xBD, 0xB8, 0x6A, 0xFE, 0x3D, 0xEC, 0x99, 0x8D, 0xBE,
    0x36, 0xE4, 0xEF, 0xBE, 0x46, 0xF5, 0x98, 0xBE, 0x27, 0x8E, 0x6E, 0xBD,
    0x13, 0xB8, 0x9D, 0xBC, 0x9D, 0x32, 0xBB, 0xBD, 0xEE, 0x10, 0x33, 0x3E,
    0x20, 0x43, 0x1F, 0x3D, 0x8D, 0x30, 0x14, 0x3E, 0x7C, 0xBA, 0x4C, 0x3E,
    0x8E, 0xE4, 0x1C, 0xBC, 0x13, 0x7C, 0x9B, 0xBC, 0x2E, 0xE7, 0x58, 0xBE,
    0xA6, 0xFA, 0x14, 0x3E, 0xBA, 0xEE, 0x04, 0x3E, 0xC7, 0xFA, 0x98, 0xBC,
    0xA5, 0x5B, 0x0E, 0x3D, 0xBA, 0x57, 0x8D, 0x3E, 0x48, 0x0D, 0x9E, 0x3E,
    0x9D, 0x34, 0x67, 0x3E, 0x21, 0x7B, 0x4E, 0x3E, 0x89, 0xA6, 0xC9, 0xBD,
    0xB9, 0x6D, 0x81, 0xBB, 0xEC, 0xC4, 0x2B, 0x3E, 0xA1, 0x64, 0xE1, 0x3E,
    0x4E, 0x6B, 0x09, 0x3E, 0x2E, 0xDB, 0x01, 0xBE, 0xD5, 0x2C, 0x49, 0xBE,
    0x20, 0x0D, 0x50, 0x3D, 0x62, 0xD7, 0xB7, 0xBE, 0x9C, 0x0C, 0x7D, 0xBE,
    0x92, 0x8D, 0x69, 0x3E, 0x7B, 0x3D, 0xEA, 0xBC, 0xDC, 0x80, 0x53, 0x3E,
    0x32, 0x3E, 0x6A, 0x3E, 0x8D, 0xCB, 0xD7, 0xBC, 0xF0, 0x69, 0x92, 0xBD,
    0x1F, 0x16, 0x16, 0xBE, 0x2B, 0x0A, 0xBE, 0x3C, 0xD2, 0xDE, 0x49, 0xBB,
    0x6B, 0xA1, 0x36, 0x3E, 0x14, 0x83, 0xA0, 0xBE, 0x58, 0x26, 0xAA, 0xBE,
    0x7F, 0xAE, 0x7C, 0xBE, 0x6E, 0x03, 0xEC, 0xBD, 0xE1, 0xCD, 0x61, 0xBE,
    0x2E, 0x1D, 0x33, 0xBE, 0x58, 0x16, 0x89, 0xBE, 0x3C, 0x58, 0xA9, 0x3E,
    0x36, 0x49, 0x7E, 0x3E, 0x1F, 0x6C, 0x20, 0x3E, 0x9D, 0x11, 0x43, 0xBD,
    0x14, 0x17, 0x1C, 0x3B, 0x91, 0xE9, 0x6B, 0xBD, 0x30, 0x72, 0x04, 0x3E,
    0x5C, 0x6B, 0x9C, 0xBE, 0x27, 0x04, 0x7A, 0xBD, 0x36, 0x11, 0xA1, 0xBE,
    0xBA, 0x02, 0xCE, 0xBE, 0xF2, 0xD0, 0x61, 0x3E, 0xFC, 0xCD, 0x05, 0xBB,
    0xFF, 0x97, 0x5B, 0xBE, 0x60, 0x7B, 0x6C, 0xBE, 0xC6, 0x6A, 0x35, 0xBE,
    0x2E, 0xE7, 0xAD, 0xBD, 0x93, 0xCB, 0x66, 0xBE, 0x52, 0x3E, 0x76, 0x3D,
    0x79, 0x3C, 0xA6, 0x3D, 0x99, 0x4D, 0x3E, 0x3E, 0x66, 0x78, 0x40, 0xBE,
    0xB4, 0x54, 0x6E, 0xBE, 0xDF, 0x5A, 0x5D, 0xBE, 0x6F, 0xE9, 0x7F, 0xBE,
    0xD4, 0x58, 0xA8, 0x3E, 0xF3, 0x7F, 0xFC, 0x3A, 0x5B, 0x8A, 0x4C, 0x3D,
    0x9C, 0x5C, 0x8E, 0xBE, 0x4F, 0x86, 0x8B, 0x3E, 0x56, 0xD0, 0x40, 0x3E,
    0xCE, 0xB3, 0x81, 0xBE, 0x62, 0xD9, 0x58, 0x3E, 0x92, 0xA8, 0x7F, 0xBD,
    0x17, 0xCD, 0xA9, 0x3D, 0x15, 0x7E, 0x61, 0xBC, 0xA8, 0x47, 0x7D, 0xBE,
    0x04, 0x6D, 0xC7, 0xBE, 0x7F, 0x8D, 0x66, 0xBD, 0x60, 0x43, 0xFB, 0x3D,
    0x24, 0xE3, 0x81, 0xBE, 0xCC, 0x17, 0x1B, 0x3E, 0x53, 0x58, 0x63, 0xBE,
    0xD4, 0x44, 0xE7, 0x3D, 0x46, 0xB8, 0x5A, 0xBC, 0xF8, 0x7C, 0x77, 0xBD,
    0xD7, 0x0D, 0x0F, 0xBE, 0xCE, 0xD0, 0x45, 0xBE, 0x26, 0x57, 0x28, 0xBD,
    0x08, 0x40, 0x61, 0xBD, 0x83, 0x4E, 0x2F, 0x3D, 0xCE, 0x0C, 0x96, 0x3D,
    0xF8, 0xDA, 0xDE, 0x3D, 0x31, 0x11, 0x02, 0xBE, 0x97, 0xC2, 0x15, 0x3D,
    0xF4, 0x5A, 0xDB, 0x3D, 0x9C, 0xAC, 0x83, 0xBC, 0xAE, 0x8B, 0x31, 0xBE,
    0x7F, 0x13, 0xB1, 0x3D, 0x1B, 0xF2, 0xC1, 0xBE, 0x6C, 0xA4, 0xB1, 0xBE,
    0x20, 0x92, 0x8B, 0xBE, 0x35, 0x02, 0x38, 0xBE, 0x64, 0x08, 0x85, 0xBE,
    0x63, 0x31, 0x8B, 0x3E, 0x45, 0x24, 0xA4, 0x3D, 0xAF, 0x67, 0x15, 0x3E,
    0x92, 0x34, 0xAA, 0xBE, 0xB2, 0x3F, 0x1C, 0x3E, 0xCA, 0x64, 0x5E, 0xBE,
    0x4F, 0x5B, 0x5F, 0x3C, 0x32, 0x4B, 0xCC, 0x3D, 0xF6, 0xA6, 0x93, 0xBE,
    0x65, 0xC7, 0x64, 0xBD, 0xC9, 0xD1, 0xBD, 0x3D, 0x0E, 0x1D, 0x95, 0x3E,
    0xBB, 0xBE, 0x3E, 0xBE, 0x28, 0x6D, 0x63, 0xBE, 0x21, 0x8A, 0xB1, 0xBD,
    0x1D, 0xD1, 0xB0, 0xBD, 0x7F, 0xB2, 0x8C, 0xBE, 0xDB, 0x92, 0x81, 0x3E,
    0x9E, 0x0D, 0x0A, 0xBD, 0xB6, 0x78, 0xDF, 0xBC, 0x90, 0xC6, 0xA2, 0x3E,
    0x61, 0x12, 0xC5, 0x3D, 0x4B, 0xF1, 0xDD, 0x3D, 0x7B, 0x17, 0xFB, 0xBC,
    0x76, 0x2F, 0x4F, 0x3E, 0x9E, 0x86, 0x94, 0xBD, 0xE9, 0x63, 0x9A, 0x3E,
    0xF5, 0xC5, 0x51, 0x3E, 0x29, 0x0F, 0x33, 0x3E, 0xC7, 0x0A, 0x94, 0xBE,
    0x7A, 0x5F, 0x99, 0x3E, 0x06, 0x1B, 0x5B, 0x3E, 0xC6, 0x69, 0x24, 0xBD,
    0x67, 0x3D, 0x98, 0x3E, 0x0B, 0xAC, 0x70, 0x3E, 0xA4, 0x32, 0x28, 0x3E,
    0x53, 0xB4, 0x54, 0x3E, 0xED, 0xFF, 0x3A, 0xBD, 0x4C, 0xAD, 0x60, 0xBD,
    0x9F, 0x17, 0xF4, 0x3C, 0x60, 0x2C, 0xC1, 0x3D, 0xF7, 0xC1, 0x48, 0xBE,
    0x09, 0x66, 0x8D, 0xBE, 0xC6, 0x03, 0x8D, 0x3E, 0xC8, 0xBD, 0x39, 0xBE,
    0x0E, 0xA4, 0xA6, 0x3E, 0xEB, 0x7E, 0x8A, 0xBD, 0x72, 0x36, 0x83, 0xBE,
    0xDD, 0x5A, 0x8A, 0x3E, 0xCF, 0x58, 0x2B, 0xBC, 0xB4, 0x0D, 0x36, 0x3E,
    0x94, 0xB3, 0x2B, 0xBD, 0x24, 0x5B, 0xB8, 0xBC, 0x3F, 0x11, 0x3F, 0x3E,
    0x90, 0x7E, 0xA9, 0x3E, 0x86, 0x8E, 0x87, 0x3E, 0xC5, 0x33, 0xD6, 0x3D,
    0x9B, 0x0E, 0x32, 0x3E, 0x20, 0xA0, 0xE2, 0x3D, 0x8A, 0x6A, 0x66, 0xBE,
    0xDA, 0xF5, 0x72, 0x3E, 0xE3, 0xD7, 0xB8, 0xBC, 0xE3, 0xAC, 0x20, 0x3E,
    0x33, 0x7E, 0xA5, 0x3B, 0x5D, 0x9E, 0xEA, 0xBD, 0xB6, 0x7E, 0x7E, 0x3E,
    0x64, 0x5A, 0xAC, 0xBE, 0xE4, 0x86, 0x90, 0xBD, 0x74, 0xDE, 0xA0, 0xBE,
    0x38, 0xDE, 0x1A, 0x3E, 0x2F, 0x0E, 0xFE, 0x3D, 0x50, 0x4B, 0x0F, 0xBE,
    0x3B, 0x0B, 0x57, 0xBE, 0xFE, 0xFE, 0xD0, 0x3D, 0xD7, 0xB2, 0x67, 0x3E,
    0x31, 0xB8, 0xAA, 0xBC, 0x28, 0xD6, 0x6B, 0xBE, 0xC8, 0x8E, 0x09, 0x3E,
    0x70, 0x2A, 0x1B, 0xBE, 0xB6, 0x8B, 0xA0, 0x3D, 0x38, 0xAB, 0x97, 0x3E,
    0x20, 0xBC, 0xA2, 0x3C, 0xEE, 0x34, 0x06, 0xBE, 0xCF, 0x1D, 0x8F, 0x3D,
    0x73, 0xDE, 0x07, 0xBE, 0xB7, 0x59, 0x82, 0x3D, 0xD5, 0x06, 0x86, 0xBE,
    0xA2, 0xF4, 0x47, 0x3E, 0xA4, 0x74, 0x17, 0x3E, 0xF3, 0xAD, 0x21, 0xBE,
    0xEE, 0xBF, 0x37, 0xBE, 0xBD, 0x10, 0x97, 0x3D, 0xCB, 0xAD, 0x34, 0xBE,
    0x86, 0x46, 0x07, 0x3C, 0xEF, 0x22, 0x26, 0x3E, 0x48, 0x6E, 0x81, 0xBE,
    0xDF, 0x54, 0x42, 0x3E, 0x3B, 0x76, 0x90, 0xBD, 0xC6, 0x1C, 0x95, 0x3E,
    0x7B, 0x78, 0x64, 0xBE, 0x52, 0x84, 0x8E, 0x3E, 0x86, 0x0E, 0x75, 0xBE,
    0xE2, 0xAF, 0x29, 0x3E, 0x10, 0x9B, 0x2E, 0xBE, 0x53, 0x37, 0x96, 0x3C,
    0xBB, 0x24, 0xA1, 0x3D, 0x97, 0x4E, 0x79, 0x3E, 0x8F, 0xB7, 0x5A, 0x3E,
    0x95, 0x05, 0x13, 0xBE, 0x3A, 0x7D, 0xB2, 0x3D, 0xB7, 0xF0, 0x0E, 0xBE,
    0x72, 0x1F, 0xA3, 0xB9, 0x56, 0xBF, 0xB1, 0x3E, 0x0E, 0xF4, 0x62, 0x3E,
    0xCD, 0xBB, 0x40, 0x3E, 0xE7, 0xA7, 0x77, 0xBC, 0x7A, 0x77, 0x1E, 0xBE,
    0x91, 0xD4, 0x37, 0x3D, 0xF6, 0xC3, 0x41, 0x3D, 0xAF, 0xEF, 0xA7, 0x3E,
    0xC5, 0x9F, 0x04, 0x3E, 0xB5, 0x31, 0x79, 0x3E, 0x15, 0xC1, 0x56, 0x3E,
    0x7C, 0x0F, 0x61, 0xBE, 0x49, 0xBE, 0x52, 0xBE, 0x7F, 0x21, 0xA9, 0x3E,
    0xD1, 0x07, 0x57, 0x3E, 0x05, 0xFD, 0xB3, 0x3B, 0x7D, 0x9E, 0xE2, 0x3C,
    0x80, 0xE0, 0x57, 0x3E, 0xE3, 0x5F, 0x6C, 0xBE, 0x31, 0xF8, 0x1E, 0x3E,
    0x67, 0x37, 0x13, 0xBE, 0xB9, 0x97, 0x4D, 0xBE, 0x0D, 0xE8, 0xB2, 0x3D,
    0x06, 0xC0, 0x46, 0x3E, 0x41, 0xE2, 0xBD, 0x3D, 0xBB, 0x51, 0xA2, 0xBE,
    0x1A, 0xD6, 0x4A, 0xBE, 0x34, 0x90, 0x08, 0xBE, 0xAD, 0x4A, 0xA3, 0x3C,
    0x73, 0xF5, 0x93, 0x3B, 0xAD, 0x5A, 0x3A, 0xBD, 0x75, 0x2E, 0x62, 0x3E,
    0x68, 0x60, 0x76, 0xBE, 0xDB, 0x68, 0x6C, 0x3E, 0xDD, 0x71, 0x4D, 0x3E,
    0x54, 0x67, 0x94, 0xBE, 0xEC, 0x13, 0x2D, 0x3E, 0xF9, 0x27, 0x48, 0xBE,
    0xC0, 0x22, 0xBC, 0xBE, 0xC3, 0xDA, 0x07, 0xBD, 0x78, 0x4E, 0xA7, 0x3E,
    0x1A, 0xA9, 0x0E, 0xBE, 0xCB, 0xE2, 0xCE, 0xBC, 0xF6, 0x45, 0x20, 0x3C,
    0x6D, 0x18, 0x87, 0x3D, 0xD2, 0x72, 0x01, 0x3E, 0xA3, 0x43, 0x51, 0x3E,
    0x6A, 0x2F, 0x08, 0xBE, 0x6D, 0x4B, 0x63, 0xBE, 0x04, 0xD7, 0x15, 0x3D,
    0xA3, 0x79, 0x36, 0xBE, 0x65, 0x41, 0xD7, 0x3D, 0x79, 0xD2, 0x28, 0xBE,
    0xD4, 0x20, 0x1B, 0x3E, 0xF9, 0xDF, 0x17, 0xBE, 0xA4, 0xCC, 0xA7, 0x3E,
    0x70, 0x0F, 0x36, 0x3D, 0xCE, 0xC4, 0xA9, 0x3D, 0x4A, 0x05, 0x4E, 0x3E,
    0x39, 0x71, 0x22, 0x3E, 0x1B, 0xAB, 0x8B, 0x3E, 0x22, 0x0D, 0x45, 0xBE,
    0x8B, 0x14, 0xAC, 0xBE, 0x9B, 0x0A, 0x07, 0xBE, 0x47, 0x81, 0x85, 0xBE,
    0x1D, 0xB8, 0x5A, 0xBE, 0x1C, 0x2A, 0xAC, 0x3E, 0xC5, 0x36, 0x28, 0xBE,
    0x0C, 0xFF, 0x82, 0xBE, 0xF6, 0x72, 0x82, 0xBE, 0x84, 0x11, 0x58, 0xBE,
    0x0D, 0x43, 0xAB, 0xBD, 0x29, 0x59, 0x2D, 0xBD, 0xFD, 0xB8, 0x88, 0xBD,
    0xB6, 0x38, 0xF6, 0xBD, 0x6E, 0x6C, 0x89, 0xBD, 0x50, 0xDD, 0x88, 0x3C,
    0x99, 0x77, 0x24, 0xBD, 0x19, 0xDE, 0x35, 0x3E, 0x3A, 0xBB, 0x95, 0xBD,
    0x09, 0x68, 0xA5, 0xBE, 0xC9, 0x48, 0xBC, 0xBE, 0x0E, 0xB9, 0x8F, 0xBE,
    0x4F, 0x80, 0x13, 0xBD, 0x64, 0x5A, 0x1B, 0xBB, 0x71, 0x77, 0x84, 0x3E,
    0x2A, 0xDA, 0x68, 0x3E, 0x94, 0xA0, 0xCD, 0xBE, 0xF1, 0x92, 0x55, 0xBE,
    0x87, 0x1C, 0xAC, 0xBD, 0x25, 0x5A, 0x0C, 0x3E, 0xFB, 0x8D, 0xAD, 0x3D,
    0xFB, 0xBE, 0x18, 0x3E, 0x7C, 0x10, 0x3F, 0xBE, 0xB7, 0x0A, 0x85, 0x3E,
    0xEF, 0xDB, 0x8F, 0xBE, 0xC7, 0x9E, 0x9D, 0x3D, 0x7F, 0xC8, 0x8B, 0x3E,
    0x20, 0x24, 0x30, 0x3E, 0xBC, 0xBD, 0x80, 0xBE, 0x17, 0xBC, 0x3B, 0xBD,
    0x4E, 0x50, 0x57, 0x3E, 0xC8, 0x96, 0xF7, 0x3B, 0xE0, 0x93, 0xB2, 0x3D,
    0xA7, 0xE2, 0xEB, 0xBD, 0x7B, 0x36, 0x31, 0xBE, 0x98, 0x56, 0x3C, 0xBE,
    0x96, 0xE2, 0x5C, 0x3E, 0xE1, 0xDE, 0xC3, 0x3D, 0x27, 0x84, 0x8C, 0xBE,
    0x6C, 0x31, 0x8B, 0xBE, 0xF7, 0x7E, 0x18, 0xBE, 0x74, 0xB8, 0xC0, 0x3D,
    0xFF, 0x16, 0x93, 0x3E, 0x7E, 0x95, 0xDA, 0x3D, 0x99, 0x24, 0x01, 0x3E,
    0x1F, 0x69, 0x85, 0xBE, 0xE9, 0x0B, 0x18, 0xBD, 0x7C, 0x3F, 0x1C, 0xBB,
    0xE6, 0xF7, 0xA7, 0xBE, 0x46, 0xCC, 0x49, 0x3E, 0x41, 0xFB, 0xDF, 0x3D,
    0xCA, 0x47, 0x4D, 0x3E, 0x30, 0x14, 0x46, 0x3E, 0x98, 0x40, 0xD3, 0x3D,
    0xCD, 0x61, 0x9D, 0x3D, 0x80, 0x49, 0x65, 0x3E, 0x99, 0xF2, 0x5C, 0x3E,
    0x29, 0x44, 0xAC, 0xBE, 0xC4, 0xAE, 0xDF, 0x3D, 0x8B, 0x3C, 0x06, 0xBE,
    0x5D, 0xA5, 0xAA, 0x3D, 0x78, 0xCA, 0x86, 0xBD, 0x9E, 0x65, 0x33, 0xBE,
    0xC5, 0xE7, 0x3D, 0x3E, 0xE0, 0xE3, 0x11, 0x3E, 0x5D, 0x0E, 0xB9, 0x3E,
    0xC2, 0x5B, 0x06, 0xBE, 0x1B, 0xC1, 0x35, 0xBD, 0x1A, 0xB7, 0x75, 0x3D,
    0x2E, 0x38, 0x5C, 0xBD, 0xE5, 0x20, 0x96, 0xBE, 0xD5, 0x76, 0xAF, 0xBE,
    0x2C, 0xAD, 0x5C, 0x3E, 0x25, 0x0B, 0x22, 0xBD, 0x4D, 0x6B, 0x9C, 0x3E,
    0x2C, 0x95, 0x58, 0xBE, 0xDB, 0x1F, 0x05, 0xBC, 0x3F, 0x32, 0xAB, 0x3E,
    0x15, 0x0B, 0x1E, 0xBC, 0xB2, 0x3B, 0x01, 0x3E, 0x62, 0x7D, 0x08, 0xBE,
    0x77, 0x51, 0x45, 0x3E, 0x19, 0xD5, 0xCE, 0x3D, 0x76, 0xC8, 0xBA, 0x3D,
    0x1A, 0x7E, 0x2C, 0xBD, 0xD8, 0xDA, 0x0B, 0x3D, 0xD5, 0xF7, 0x78, 0xBC,
    0x7B, 0x81, 0x91, 0x3E, 0xA7, 0x23, 0x9E, 0xBE, 0x04, 0x19, 0x9E, 0xBE,
    0x9E, 0x06, 0x45, 0x3D, 0x17, 0x60, 0xC1, 0x3C, 0xE5, 0xC4, 0x46, 0x3D,
    0xE2, 0x55, 0x35, 0xBE, 0x01, 0x1F, 0x59, 0x3E, 0x77, 0x6D, 0x23, 0x3E,
    0xD9, 0x3B, 0x0B, 0xBD, 0x79, 0x4B, 0x93, 0xBE, 0x86, 0x0A, 0x59, 0x3D,
    0x77, 0xB7, 0x00, 0x3D, 0x36, 0xC5, 0xC3, 0xBD, 0x7C, 0x08, 0xC7, 0x3D,
    0x4A, 0xAF, 0xFE, 0xBD, 0x32, 0x12, 0xAF, 0x3E, 0x2C, 0xB4, 0x36, 0x3E,
    0x52, 0xCB, 0x9F, 0x3D, 0x11, 0x22, 0xAC, 0x3D, 0x93, 0x33, 0xC4, 0x3C,
    0xAE, 0xAD, 0xBA, 0x3D, 0x57, 0x06, 0x11, 0xBD, 0xCF, 0xBD, 0xC1, 0xBD,
    0xC6, 0x39, 0x58, 0x3E, 0x48, 0x6A, 0xC8, 0x3D, 0x29, 0x38, 0x01, 0xBD,
    0x33, 0xA2, 0x5D, 0xBE, 0xC9, 0x49, 0x6A, 0x3E, 0xFE, 0x80, 0x52, 0x3E,
    0x3C, 0x57, 0x99, 0xBD, 0xCF, 0x12, 0x07, 0x3E, 0x0C, 0x66, 0x2B, 0xBD,
    0x95, 0x79, 0xEE, 0x3D, 0xE3, 0xF9, 0xB2, 0x3E, 0xDA, 0xB4, 0x5D, 0x3E,
    0x44, 0x4D, 0x16, 0x3D, 0xC3, 0x0F, 0x01, 0xBE, 0xED, 0x08, 0x54, 0xBD,
    0x7F, 0x5D, 0xA0, 0xBD, 0x1A, 0x41, 0xE4, 0xBE, 0x04, 0xD2, 0x30, 0xBD,
    0xA1, 0x63, 0x53, 0x3D, 0x1C, 0x4D, 0x5F, 0xBE, 0x2D, 0x2B, 0xB2, 0xBD,
    0xC1, 0x7C, 0x30, 0x3D, 0xD7, 0x54, 0x99, 0x3E, 0x82, 0xC5, 0x98, 0xBD,
    0xCE, 0xE3, 0xFC, 0x3D, 0x3D, 0xD5, 0x3A, 0xBE, 0x96, 0xAC, 0xA4, 0xBE,
    0xD0, 0xCC, 0x91, 0x3D, 0x6E, 0xAA, 0xB9, 0xBD, 0x96, 0x98, 0x3D, 0xBD,
    0x5C, 0x15, 0x44, 0xBD, 0x3F, 0xC8, 0x15, 0x3E, 0x9A, 0xEF, 0x0C, 0x3E,
    0x56, 0xD0, 0xE4, 0xBD, 0x82, 0x67, 0x30, 0xBE, 0xDC, 0x01, 0x9B, 0xBE,
    0x36, 0x78, 0x93, 0xBE, 0xD3, 0x09, 0x8E, 0x3E, 0xB0, 0x83, 0x38, 0xBE,
    0x94, 0x69, 0x15, 0xBE, 0xC9, 0xDD, 0x0A, 0xBE, 0x82, 0x38, 0x79, 0x3E,
    0x61, 0xE3, 0x38, 0xBD, 0xA9, 0x36, 0x9B, 0x3D, 0x78, 0xD6, 0x96, 0xBE,
    0xD9, 0xED, 0x1E, 0xBE, 0x63, 0x0A, 0x17, 0xBD, 0x50, 0x51, 0x45, 0xBD,
    0xA5, 0xC2, 0x62, 0x3E, 0xA7, 0x2E, 0x83, 0xBD, 0x4F, 0x61, 0x67, 0xBE,
    0x06, 0x31, 0x82, 0x3D, 0xDD, 0x47, 0x0F, 0x3E, 0x68, 0xDE, 0xA5, 0xBD,
    0x1E, 0x8B, 0x8C, 0xBE, 0x55, 0x31, 0xA3, 0xBD, 0x76, 0xC0, 0xF0, 0xBD,
    0x1D, 0x99, 0x99, 0x3E, 0x77, 0xF3, 0x03, 0x3C, 0x5E, 0x09, 0x99, 0xBD,
    0x97, 0x0F, 0xD7, 0xBC, 0x20, 0x84, 0x16, 0x3E, 0xB8, 0xDA, 0x85, 0x3D,
    0x0D, 0xCC, 0x90, 0x3E, 0xF1, 0x6B, 0x47, 0xBE, 0x02, 0x78, 0xA7, 0x3E,
    0xCA, 0xBD, 0x51, 0xBB, 0x26, 0xC6, 0x62, 0x3E, 0x3B, 0xAC, 0xCA, 0x3D,
    0x95, 0x7D, 0x6A, 0x3E, 0x63, 0xA4, 0xBA, 0xBD, 0x75, 0x53, 0x0E, 0x3E,
    0x12, 0x09, 0x1C, 0xBE, 0x9F, 0xA3, 0xD1, 0xBD, 0xF1, 0xAD, 0x98, 0xBD,
    0x9D, 0x30, 0x2C, 0x3E, 0x11, 0x65, 0x1B, 0x3E, 0x13, 0x3D, 0x1A, 0xBB,
    0xCD, 0xB8, 0x0C, 0x3E, 0xE6, 0x35, 0xA0, 0xBE, 0x4B, 0x36, 0xB7, 0x3D,
    0xA0, 0x34, 0xEC, 0xBD, 0x80, 0xB3, 0x92, 0x3E, 0x15, 0x27, 0x8B, 0x3B,
    0xAC, 0x9C, 0x28, 0xBD, 0x5E, 0x0F, 0x2B, 0x3E, 0x1E, 0x3C, 0x8D, 0xBE,
    0xEE, 0x6A, 0xEA, 0x3D, 0xC1, 0x11, 0x4F, 0x3E, 0xEA, 0x71, 0x53, 0x3E,
    0xA1, 0x5F, 0x62, 0x3E, 0x61, 0x6D, 0xA1, 0xBE, 0x9F, 0x0C, 0xF0, 0x3D,
    0x03, 0x7D, 0xA6, 0xBE, 0x0C, 0x7C, 0x34, 0x3E, 0x5F, 0xEF, 0x37, 0xBD,
    0xA2, 0x76, 0x0F, 0xBE, 0x1E, 0x04, 0xF9, 0x3A, 0x1A, 0xF1, 0x4A, 0xBE,
    0xB2, 0xF8, 0x46, 0xBA, 0x99, 0x3D, 0x95, 0x3E, 0x3B, 0xB9, 0x46, 0xBE,
    0x16, 0xA1, 0x65, 0x3D, 0x1F, 0x15, 0x9E, 0xBE, 0x40, 0x2E, 0x74, 0x3D,
    0x26, 0xFD, 0xB1, 0x3D, 0xA4, 0x97, 0xCD, 0xBE, 0x9C, 0x27, 0xA0, 0xBD,
    0x7F, 0x51, 0x78, 0xBA, 0x20, 0x16, 0x57, 0x3E, 0x1C, 0x08, 0x98, 0xBD,
    0x33, 0xD4, 0x5F, 0xBD, 0xC5, 0xCB, 0xDC, 0xBD, 0x13, 0xDB, 0x22, 0x3E,
    0xF3, 0x88, 0xCD, 0x3C, 0xC9, 0x19, 0x80, 0x3D, 0x0B, 0x3D, 0x64, 0x3E,
    0x75, 0xED, 0x03, 0xBE, 0xF5, 0xFC, 0x3A, 0x3E, 0xE2, 0x75, 0x5E, 0xBB,
    0xBC, 0xB4, 0xC0, 0x3D, 0xAD, 0xBF, 0x6D, 0x3E, 0xA9, 0xEA, 0x9F, 0xBE,
    0x46, 0x83, 0x15, 0x3E, 0x59, 0x02, 0x3C, 0xBD, 0xD9, 0xC6, 0x15, 0xBE,
    0x68, 0xED, 0xDE, 0x3D, 0x9B, 0x89, 0xA8, 0x3E, 0xE2, 0xD2, 0x8B, 0x3D,
    0x19, 0xBD, 0x9C, 0x3E, 0x6C, 0x14, 0x67, 0xBE, 0x1C, 0x18, 0x69, 0xBE,
    0xD5, 0x3A, 0x1F, 0x3E, 0x2C, 0x1B, 0x1C, 0xBD, 0x15, 0xC9, 0xCA, 0x3D,
    0xFF, 0x85, 0xE6, 0xBC, 0x7C, 0xF0, 0x51, 0x3E, 0x95, 0x9A, 0x6E, 0xBE,
    0x22, 0x63, 0x8C, 0xBE, 0x16, 0x8E, 0x18, 0xBE, 0x3E, 0x9C, 0x93, 0x3D,
    0xD7, 0x0B, 0x98, 0x3B, 0x0A, 0xF7, 0xFF, 0xFF, 0x04, 0x00, 0x00, 0x00,
    0x00, 0x08, 0x00, 0x00, 0x23, 0xDA, 0x07, 0x3D, 0xF4, 0x0E, 0x8E, 0xBE,
    0x47, 0x54, 0xA0, 0xBE, 0x7A, 0xCA, 0x66, 0x3E, 0x32, 0xFA, 0xAE, 0xBE,
    0x73, 0xAF, 0x5B, 0xBD, 0xD1, 0xDE, 0x2A, 0xBE, 0x01, 0xDE, 0x42, 0xBE,
    0xFC, 0x70, 0xAA, 0x3E, 0x2A, 0x62, 0xF9, 0x3D, 0xCF, 0x00, 0xB0, 0x3E,
    0x2E, 0x62, 0x8F, 0xBC, 0xE2, 0x07, 0xEC, 0xBC, 0xEC, 0x82, 0x77, 0x3E,
    0xA6, 0x53, 0x96, 0xBE, 0x96, 0xCE, 0x77, 0xBE, 0x10, 0x63, 0x82, 0xBD,
    0xA2, 0x0E, 0x3B, 0xBE, 0x32, 0x5D, 0x14, 0xBE, 0x49, 0x0C, 0xEB, 0x3D,
    0x61, 0xA1, 0x61, 0xBE, 0x24, 0x59, 0xD8, 0x3E, 0x7F, 0xFE, 0x65, 0x3E,
    0x76, 0x63, 0x1F, 0xBD, 0xA9, 0x3D, 0x94, 0x3E, 0x06, 0x65, 0x35, 0x3E,
    0x8D, 0x5F, 0x8A, 0x3E, 0xA7, 0x51, 0x96, 0xBE, 0xB2, 0xD7, 0x61, 0x3E,
    0xB4, 0xF7, 0xAB, 0x3E, 0x97, 0xDE, 0x89, 0xBD, 0xCC, 0x50, 0xA3, 0x3E,
    0x98, 0x42, 0x83, 0x3D, 0x7F, 0x7F, 0x79, 0x3E, 0x07, 0x82, 0x81, 0x3E,
    0xD9, 0x7A, 0x6C, 0xBE, 0x9A, 0xBD, 0x80, 0xBD, 0x33, 0x4E, 0x57, 0x3E,
    0xEC, 0x6E, 0xE6, 0x3D, 0x61, 0x7F, 0x13, 0x3D, 0x04, 0x7E, 0x15, 0xBE,
    0xEA, 0xCA, 0xD8, 0x3D, 0x96, 0x83, 0x54, 0x3E, 0xF5, 0xFB, 0x2C, 0xBE,
    0x85, 0x96, 0xCF, 0x3E, 0x10, 0xB2, 0x37, 0xBE, 0xEE, 0x28, 0x93, 0x3E,
    0x38, 0x85, 0x1B, 0x3E, 0x14, 0x58, 0x8C, 0xBE, 0x44, 0xCB, 0x20, 0x3E,
    0xE1, 0x89, 0xC1, 0xBD, 0xC2, 0x42, 0x25, 0xBE, 0xC4, 0x65, 0x9E, 0xBB,
    0xD7, 0x0E, 0x47, 0x3D, 0x42, 0xA5, 0x7F, 0x3D, 0x96, 0xFA, 0xE5, 0xBC,
    0xE9, 0x30, 0x94, 0xBE, 0x75, 0x4C, 0xC0, 0x3E, 0x71, 0x0B, 0x5C, 0x3E,
    0x4F, 0x1A, 0x84, 0x3E, 0x17, 0x0E, 0x9E, 0xBE, 0xBD, 0xD5, 0xDC, 0xBD,
    0xEF, 0x50, 0x0E, 0x3E, 0xF0, 0x4C, 0x16, 0xBE, 0x62, 0xFD, 0x86, 0xBE,
    0xF3, 0x86, 0xD1, 0xBD, 0x0D, 0xC8, 0xCC, 0xBC, 0xA1, 0x4B, 0xB2, 0xBE,
    0x36, 0x16, 0x33, 0x3E, 0xCC, 0xF3, 0x59, 0x3E, 0x89, 0xAC, 0x14, 0xBE,
    0x71, 0xB4, 0x33, 0xBD, 0x47, 0x26, 0x8D, 0x3C, 0x7B, 0xE9, 0x0B, 0x3E,
    0x49, 0x2C, 0xDF, 0xBB, 0x64, 0xEE, 0xAA, 0xBD, 0x35, 0x57, 0xC1, 0xBE,
    0x4E, 0xB1, 0x17, 0xBE, 0x85, 0xB1, 0x44, 0x3E, 0x85, 0x2D, 0x1F, 0xBE,
    0x17, 0x60, 0x98, 0xBE, 0xFA, 0xF3, 0x9E, 0xBD, 0xFA, 0x0B, 0x4C, 0x3E,
    0x6D, 0x02, 0x92, 0xBE, 0xDC, 0xDE, 0x9D, 0xBE, 0xDB, 0x19, 0xED, 0xBD,
    0xF7, 0x08, 0x92, 0xBE, 0xF8, 0x47, 0x9F, 0x3D, 0x76, 0xB3, 0x08, 0xBE,
    0xD2, 0xF2, 0x11, 0x3E, 0xF2, 0x37, 0x86, 0x3D, 0x5A, 0xCB, 0xAF, 0xBE,
    0x8D, 0x64, 0xA8, 0x3C, 0xDC, 0x07, 0x20, 0xBE, 0x02, 0xDA, 0x81, 0xBE,
    0x89, 0x15, 0xB4, 0x3E, 0xCE, 0x84, 0x22, 0xBE, 0x2D, 0x44, 0x83, 0xBE,
    0xA8, 0xDD, 0xCE, 0x3C, 0x26, 0x01, 0x30, 0x3E, 0xBF, 0xC4, 0x12, 0xBE,
    0xFA, 0x65, 0x45, 0xBD, 0x9B, 0xAB, 0x6C, 0x3E, 0x82, 0xB8, 0x6A, 0xBE,
    0x0B, 0xBA, 0xB2, 0x3E, 0x51, 0x90, 0xE2, 0x3D, 0x9A, 0xCA, 0x61, 0xBD,
    0x01, 0xDB, 0x31, 0x3E, 0xCC, 0x48, 0x6C, 0x3E, 0x95, 0xF7, 0x2C, 0x3C,
    0xED, 0xBB, 0xA0, 0xBE, 0x34, 0xA3, 0x33, 0x3D, 0x01, 0x08, 0x81, 0xBE,
    0xD5, 0x2E, 0xAE, 0xBE, 0x37, 0xEA, 0xE3, 0x3D, 0xB9, 0x25, 0xD5, 0x3D,
    0x57, 0x69, 0x3B, 0x3E, 0xDF, 0x88, 0xA0, 0xBE, 0x04, 0x1C, 0x27, 0x3E,
    0x26, 0x59, 0xAD, 0x3E, 0x3D, 0x8E, 0x5F, 0xBE, 0x52, 0x4E, 0x0D, 0x3E,
    0xE0, 0x30, 0xB2, 0xBE, 0x46, 0x19, 0xA7, 0xBE, 0x97, 0xED, 0x25, 0xBE,
    0x53, 0x3A, 0x42, 0xBD, 0xF3, 0x58, 0x26, 0x3E, 0xC8, 0xBD, 0x98, 0xBE,
    0xA2, 0x12, 0x0F, 0x3E, 0x58, 0x81, 0xB7, 0xBE, 0x24, 0x77, 0x23, 0x3C,
    0x7D, 0x9A, 0x27, 0x3D, 0x63, 0x6C, 0x5F, 0xBE, 0xFC, 0xD3, 0x2E, 0x3D,
    0xBB, 0xC5, 0xA9, 0x3E, 0xA4, 0x14, 0x88, 0xBE, 0x4E, 0x27, 0x31, 0xBE,
    0x0D, 0x9C, 0x62, 0x3C, 0x87, 0x65, 0xC9, 0x3C, 0x8C, 0x51, 0x3F, 0xBE,
    0x06, 0x04, 0x0B, 0x3E, 0xDE, 0x3C, 0x36, 0xBE, 0xE3, 0xBF, 0x2C, 0xBC,
    0xE9, 0x6B, 0x6D, 0x3E, 0x74, 0xF6, 0xA4, 0x3E, 0xDC, 0x37, 0xD9, 0x3A,
    0xAB, 0xB5, 0x95, 0x3E, 0x99, 0x4C, 0x1B, 0xBE, 0x5B, 0x7F, 0x0B, 0x3E,
    0x9F, 0xF0, 0x86, 0x3E, 0xA5, 0xC3, 0x3D, 0x3E, 0x66, 0x08, 0xC5, 0x3E,
    0x08, 0xD7, 0xA9, 0xBE, 0x0B, 0x31, 0x5D, 0xBE, 0x1E, 0xC7, 0xBD, 0xBD,
    0x6C, 0xDE, 0xB0, 0x3C, 0x29, 0x6E, 0xA5, 0x3D, 0x15, 0x8A, 0x87, 0x3E,
    0x04, 0x66, 0x06, 0xBD, 0x18, 0xEE, 0x81, 0x3E, 0x46, 0xCB, 0xA7, 0x3D,
    0x1A, 0x60, 0x4C, 0xBE, 0x1C, 0x9A, 0xAB, 0xBE, 0xF9, 0xB5, 0xFB, 0x3D,
    0xBD, 0x46, 0x12, 0x3E, 0x36, 0x4B, 0x1E, 0xBD, 0xE9, 0xA9, 0x36, 0xBE,
    0xA6, 0xBF, 0x2A, 0x3E, 0x90, 0x98, 0x56, 0x3E, 0xB9, 0x25, 0xB3, 0x3E,
    0xD7, 0x7A, 0x8C, 0xBE, 0x4C, 0x18, 0x03, 0x3D, 0x01, 0x1F, 0xE4, 0x3D,
    0x88, 0x59, 0x8B, 0xBC, 0x62, 0xBB, 0xD3, 0xBC, 0xCB, 0x2D, 0x30, 0x3E,
    0xA5, 0x3F, 0xA0, 0xBE, 0x20, 0x45, 0xCF, 0xBD, 0x48, 0xEF, 0x06, 0x3E,
    0xA2, 0xC7, 0x2E, 0x3B, 0x6E, 0x3C, 0xDE, 0xBC, 0x82, 0xDB, 0x16, 0xBC,
    0x16, 0xB6, 0x91, 0xBE, 0x8A, 0xEF, 0x5C, 0x3E, 0xDE, 0x4C, 0x49, 0xBD,
    0x2B, 0xB7, 0xD0, 0xBD, 0xE8, 0x70, 0x4F, 0x3E, 0x13, 0x06, 0x5C, 0x3E,
    0x0A, 0x01, 0xF1, 0x3D, 0x0E, 0x75, 0x14, 0x3D, 0xA4, 0xF7, 0xE9, 0xBD,
    0xC3, 0x05, 0x90, 0x3C, 0xE8, 0x3F, 0x3C, 0xBE, 0x79, 0xB4, 0xB9, 0x3C,
    0xDF, 0xE5, 0x9B, 0xBE, 0x37, 0x73, 0xC1, 0x3E, 0xB6, 0xF8, 0xB2, 0x3E,
    0x87, 0x21, 0x44, 0xBE, 0xEC, 0xB2, 0x6B, 0x3E, 0xDA, 0x2B, 0xA7, 0xBE,
    0x6F, 0xFA, 0x76, 0x3E, 0xA4, 0xB6, 0x6E, 0x3D, 0x2D, 0xD4, 0xDD, 0xBB,
    0xDA, 0xEA, 0xA5, 0x3E, 0xC5, 0xDB, 0xF3, 0xBD, 0xCD, 0x9A, 0x79, 0x3E,
    0x3F, 0x3B, 0xB5, 0xBE, 0x25, 0xC8, 0xC0, 0x3C, 0xAA, 0x78, 0x09, 0x3E,
    0x6C, 0x6A, 0x33, 0x3C, 0x1C, 0xA5, 0xB2, 0x3E, 0x2F, 0xE8, 0x07, 0xBE,
    0x4A, 0x33, 0xBC, 0x3D, 0x42, 0x1E, 0x96, 0xBD, 0x6E, 0x1A, 0x54, 0xBD,
    0x02, 0xD6, 0x9C, 0x3E, 0xEB, 0x01, 0xDF, 0xBD, 0x2C, 0xEA, 0x39, 0x3E,
    0x79, 0x87, 0x91, 0x3E, 0x88, 0x0C, 0xAE, 0xBD, 0x76, 0xA0, 0xBD, 0x3E,
    0x97, 0x49, 0x56, 0xBE, 0x4B, 0xB1, 0x93, 0xBD, 0x7A, 0xB8, 0x1D, 0x3D,
    0xD9, 0xDC, 0xA0, 0xBE, 0xE0, 0x3C, 0x97, 0x3E, 0x29, 0xA4, 0xB6, 0x3E,
    0x61, 0xC6, 0xBA, 0x3D, 0xD2, 0x0F, 0xCE, 0xBC, 0xC4, 0x90, 0x5E, 0xBE,
    0xD3, 0x04, 0x6A, 0xBE, 0x40, 0x1D, 0xBE, 0xBD, 0x45, 0xA3, 0x9B, 0xBE,
    0x84, 0xEC, 0xB0, 0xBB, 0xAC, 0x5C, 0x2F, 0xBE, 0x18, 0x68, 0x33, 0xBD,
    0xF5, 0xAC, 0x8A, 0xBD, 0x28, 0x0C, 0x8D, 0xBE, 0xF7, 0x7A, 0xE5, 0xBD,
    0xAB, 0x49, 0x59, 0xBC, 0x83, 0x47, 0x5B, 0xBE, 0xE2, 0x6D, 0xA5, 0x3E,
    0x3F, 0xDF, 0x3C, 0x3D, 0xC7, 0x67, 0xA8, 0xBE, 0xBC, 0x67, 0xA1, 0xBE,
    0x31, 0x4A, 0x07, 0x3E, 0x4C, 0x4A, 0x99, 0xBC, 0xF8, 0xAA, 0x98, 0x3E,
    0xC9, 0x83, 0xCA, 0xBD, 0xC2, 0xAB, 0x44, 0x3E, 0x4C, 0x35, 0x12, 0x3E,
    0x84, 0xF8, 0xBC, 0xBE, 0xCD, 0xBA, 0xA1, 0x3E, 0xFC, 0xE0, 0xBC, 0xBD,
    0xE3, 0x22, 0x1C, 0xBE, 0x16, 0xCD, 0xAB, 0x3E, 0x1C, 0x67, 0x8F, 0x3C,
    0x4E, 0xF7, 0x69, 0xBD, 0x98, 0x1E, 0xA0, 0xBE, 0x1D, 0x0E, 0x0E, 0xBD,
    0x1C, 0x6E, 0x2B, 0x3E, 0x8B, 0x79, 0x94, 0xBE, 0x02, 0x30, 0x60, 0x3E,
    0x2E, 0xBC, 0x78, 0x3B, 0xDD, 0xA8, 0x67, 0xBE, 0xFB, 0x88, 0x22, 0xBD,
    0x4C, 0xC4, 0x78, 0xBD, 0xA7, 0x9F, 0x90, 0xBE, 0xB1, 0xFA, 0xF2, 0x3E,
    0x5B, 0x60, 0xA3, 0x3E, 0xC6, 0x41, 0x75, 0x3E, 0x7D, 0x0F, 0xAA, 0x3E,
    0x2C, 0xC6, 0x7D, 0x3D, 0x52, 0x27, 0xB7, 0x3E, 0x44, 0x78, 0x29, 0xBE,
    0x96, 0x5E, 0x34, 0x3D, 0xB9, 0xAA, 0xB7, 0xBE, 0x33, 0x83, 0x90, 0xBE,
    0xC3, 0xED, 0xE7, 0xBD, 0x66, 0xE1, 0xB8, 0xBE, 0x73, 0x1C, 0x59, 0xBE,
    0xBE, 0x5D, 0x92, 0x3E, 0x01, 0x81, 0x5C, 0x3E, 0x93, 0xC4, 0x9F, 0x3D,
    0x06, 0x3F, 0x18, 0x3E, 0x82, 0xC0, 0x84, 0xBB, 0x25, 0x7C, 0x66, 0xBD,
    0xB8, 0x18, 0x8A, 0x3E, 0x50, 0x53, 0x7D, 0xBD, 0x57, 0x1C, 0x7B, 0x3E,
    0xC0, 0x3B, 0x81, 0x3D, 0xFB, 0x44, 0x82, 0x3E, 0xCB, 0x8B, 0x75, 0xBE,
    0xBF, 0xCC, 0xD7, 0xBD, 0xB6, 0x0A, 0x07, 0x3E, 0x94, 0xD6, 0xD0, 0x3D,
    0xE1, 0x47, 0x5A, 0x3E, 0x3E, 0xEE, 0xB4, 0x3E, 0x2F, 0x67, 0x11, 0xBC,
    0xAA, 0xBF, 0x8F, 0x3D, 0xE8, 0xFA, 0x30, 0xBD, 0xF3, 0x13, 0x38, 0x3E,
    0xC2, 0x0D, 0x87, 0xBD, 0xA0, 0xC2, 0x4A, 0xBE, 0x99, 0x19, 0x2C, 0xBE,
    0xFE, 0xE2, 0x1B, 0xBE, 0x0B, 0x77, 0xBF, 0xBE, 0xE8, 0xD8, 0xEB, 0xBD,
    0x97, 0xAE, 0x76, 0xBE, 0x49, 0x61, 0x55, 0xBE, 0x81, 0x9F, 0x3C, 0xBE,
    0xAD, 0x0A, 0x97, 0xBE, 0x64, 0x41, 0xD8, 0xBD, 0xAF, 0x76, 0x8E, 0xBE,
    0xC9, 0x3C, 0x7A, 0xBC, 0x7E, 0x09, 0x72, 0xBE, 0x7F, 0xDE, 0x50, 0x3E,
    0x75, 0xC4, 0xEE, 0x3C, 0x60, 0x4E, 0x75, 0x3C, 0xD3, 0x10, 0x8A, 0x3D,
    0x3E, 0x94, 0x5A, 0xBC, 0xB1, 0x89, 0x50, 0xBE, 0xCA, 0x9F, 0x60, 0x3E,
    0xD3, 0x81, 0x98, 0xBD, 0xB1, 0x02, 0x09, 0xBE, 0xF6, 0x89, 0x3D, 0xBD,
    0x6A, 0x29, 0xB8, 0xBC, 0x8C, 0x34, 0x9A, 0xBE, 0x01, 0x0B, 0x7E, 0x3E,
    0xB1, 0xAA, 0x85, 0x3E, 0x19, 0x67, 0x38, 0xBE, 0x67, 0x79, 0x82, 0x3E,
    0xC8, 0xEA, 0xE9, 0x3D, 0x94, 0x5C, 0x3E, 0xBD, 0x11, 0x60, 0x89, 0x3E,
    0x00, 0x85, 0x86, 0xBE, 0xA9, 0x3C, 0x09, 0x3E, 0x9F, 0xDE, 0xCE, 0xBD,
    0x91, 0x53, 0x5D, 0xBD, 0x68, 0xE2, 0x96, 0x3E, 0xF7, 0x60, 0x04, 0x3E,
    0x1B, 0xC9, 0x87, 0x3E, 0xD5, 0x7D, 0x25, 0x3E, 0x9E, 0xC6, 0xCD, 0x3E,
    0x03, 0x8B, 0x35, 0xBE, 0x03, 0x8D, 0x94, 0xBE, 0xEF, 0x58, 0xD3, 0xBD,
    0xB6, 0x0B, 0x03, 0xBE, 0x2C, 0x79, 0x21, 0x3E, 0x14, 0x65, 0xFB, 0x3D,
    0xC5, 0x8A, 0xDB, 0xBD, 0x94, 0x30, 0xC1, 0xBD, 0x42, 0x87, 0x18, 0xBE,
    0x42, 0xD4, 0x65, 0xBE, 0x56, 0x19, 0x6E, 0x3D, 0x24, 0x9E, 0xD2, 0x3D,
    0x65, 0x86, 0x0D, 0xBD, 0x62, 0x87, 0x80, 0x3D, 0x70, 0x88, 0x84, 0x3E,
    0x68, 0xAF, 0x7A, 0x3E, 0x41, 0x55, 0x4C, 0xBE, 0x7B, 0xC0, 0x2B, 0xBE,
    0x9E, 0x9F, 0xEB, 0xBE, 0x25, 0x2A, 0xE3, 0xBD, 0x50, 0xDB, 0xBF, 0xBE,
    0x15, 0x2C, 0x9F, 0xBC, 0x2B, 0xD7, 0x92, 0x3E, 0x20, 0x82, 0x3C, 0x3E,
    0xA1, 0xCB, 0xEB, 0xBD, 0xC0, 0xC9, 0x85, 0x3E, 0xFC, 0xF4, 0x51, 0x3E,
    0x86, 0xC1, 0xC7, 0x3D, 0x10, 0x3B, 0x5F, 0xBD, 0xA2, 0x06, 0x86, 0x3E,
    0xDD, 0x45, 0x68, 0x3E, 0xA6, 0x2A, 0xCA, 0xBD, 0x8B, 0x37, 0x34, 0xBE,
    0x8A, 0xAC, 0xAB, 0xBE, 0x22, 0xEF, 0xAC, 0xBE, 0x37, 0x07, 0x7C, 0x3D,
    0xA8, 0xFB, 0x4B, 0x3E, 0x03, 0x60, 0xA3, 0xBD, 0xD3, 0x06, 0x7B, 0x3E,
    0x2B, 0x45, 0x05, 0xBE, 0x9A, 0x80, 0x4D, 0xBE, 0x48, 0xFD, 0x68, 0xBE,
    0xF2, 0x19, 0x49, 0xBE, 0xC9, 0xB4, 0x8F, 0x3D, 0x45, 0x2A, 0x2A, 0x3D,
    0x90, 0xFA, 0x33, 0x3E, 0x20, 0xA0, 0x43, 0x3E, 0xA4, 0x12, 0x01, 0xBD,
    0x07, 0x44, 0x64, 0x3D, 0x40, 0x53, 0xB9, 0xBE, 0x02, 0x82, 0x3E, 0x3E,
    0x73, 0x0A, 0xB7, 0xBE, 0xC4, 0x9B, 0xD5, 0xBD, 0xF0, 0x50, 0x5F, 0xBE,
    0xD5, 0x40, 0xA6, 0xBE, 0x68, 0xF2, 0xC3, 0x3D, 0x41, 0xD2, 0x24, 0x3E,
    0x37, 0xC2, 0x81, 0x3E, 0x9B, 0x25, 0x13, 0xBD, 0x89, 0x5B, 0x9A, 0x3D,
    0xB6, 0xB4, 0x49, 0x3D, 0x58, 0x19, 0x80, 0xBE, 0x25, 0x17, 0x82, 0xBE,
    0x75, 0xA1, 0x7A, 0xBE, 0xD7, 0xBF, 0xED, 0x3D, 0xF1, 0x7C, 0xBD, 0xBB,
    0xC4, 0xB0, 0xA0, 0x3B, 0xC0, 0x0C, 0x3B, 0xBE, 0x91, 0x87, 0x82, 0x3E,
    0xCC, 0x47, 0xBA, 0xBB, 0x7F, 0x35, 0xA3, 0xBE, 0xAA, 0xCC, 0xCA, 0xBD,
    0x1C, 0x71, 0x60, 0xBE, 0x2A, 0xCC, 0x4C, 0x3D, 0xAC, 0x2A, 0x94, 0x3D,
    0xD0, 0x15, 0x93, 0xBE, 0xFB, 0x35, 0x9C, 0xBD, 0xC4, 0xF3, 0xA4, 0xBE,
    0x5D, 0xFD, 0x8F, 0xBE, 0xD1, 0x5A, 0xA1, 0x3D, 0x69, 0x8A, 0x66, 0xBD,
    0x56, 0x02, 0x2D, 0xBE, 0xFD, 0x03, 0x91, 0xBD, 0x47, 0x3B, 0x72, 0xBE,
    0x54, 0x76, 0x24, 0x3E, 0x2B, 0x34, 0xD9, 0x3D, 0x5E, 0x7E, 0xCC, 0xBD,
    0xD7, 0x9A, 0x1E, 0x3E, 0xFC, 0x73, 0x8A, 0xBE, 0xDE, 0xC0, 0xBC, 0x3E,
    0x48, 0xB7, 0x96, 0x3E, 0xAA, 0xE9, 0xDD, 0x3D, 0x12, 0xB5, 0x8B, 0x3E,
    0xB1, 0x3F, 0xF0, 0xBD, 0x0E, 0x29, 0x89, 0xBE, 0xCD, 0x37, 0xFE, 0x3B,
    0x3D, 0xF4, 0x20, 0xBE, 0xB2, 0x1A, 0xB8, 0x3E, 0x7D, 0x3A, 0x3C, 0x3E,
    0xBC, 0x8E, 0x15, 0xBD, 0x89, 0x77, 0x05, 0x3B, 0x6C, 0xAF, 0x43, 0x3D,
    0x9E, 0x61, 0xF0, 0xBD, 0x79, 0xB0, 0x56, 0x3E, 0x62, 0x91, 0x57, 0xBD,
    0x5A, 0xFD, 0x28, 0xBE, 0xCB, 0xE5, 0x14, 0xBD, 0x9C, 0x8F, 0xC7, 0xBE,
    0x6C, 0xC7, 0x1F, 0x3D, 0x84, 0x17, 0x0E, 0x3E, 0xA8, 0x14, 0x92, 0xBE,
    0x7E, 0x49, 0xED, 0xBD, 0xE4, 0x7D, 0xC3, 0xBD, 0xC3, 0x47, 0x8B, 0x3E,
    0x36, 0xEE, 0x93, 0x3D, 0x55, 0xFF, 0x9C, 0x3E, 0xF4, 0x6C, 0xDB, 0x3E,
    0x30, 0xF8, 0xE7, 0x3E, 0x75, 0x60, 0x5D, 0x3E, 0x18, 0xED, 0x7A, 0x3E,
    0x37, 0x1A, 0x78, 0xBE, 0xF7, 0x5B, 0xA4, 0x3B, 0x3A, 0x27, 0x8B, 0x3E,
    0x6D, 0x33, 0x8D, 0x3E, 0x37, 0x44, 0xA9, 0xBE, 0x9B, 0x5D, 0x9F, 0xBD,
    0x08, 0xC3, 0x6B, 0x3E, 0x3B, 0xBB, 0x46, 0x3E, 0x44, 0x9D, 0x99, 0xBE,
    0x92, 0x36, 0x82, 0x3D, 0x00, 0x31, 0x90, 0xBE, 0xA7, 0x2E, 0x97, 0x3D,
    0xAD, 0x81, 0x72, 0x3E, 0x2B, 0x36, 0x29, 0xBE, 0xBE, 0x31, 0x8B, 0xBE,
    0xA2, 0x36, 0xA7, 0xBC, 0x25, 0xD8, 0x03, 0xBE, 0xD8, 0x0C, 0x50, 0x3E,
    0x9B, 0x1A, 0xA8, 0xBE, 0x88, 0x69, 0x78, 0x3E, 0x78, 0x0B, 0x2E, 0x3E,
    0x77, 0x67, 0x6A, 0xBE, 0x1E, 0xDE, 0xAF, 0x3E, 0xAD, 0x12, 0xCD, 0xBE,
    0x1A, 0x32, 0x2C, 0x3E, 0x25, 0x07, 0x90, 0x3D, 0xCC, 0x1D, 0x94, 0x3E,
    0xF4, 0x71, 0xE7, 0x3D, 0x2D, 0x8A, 0x39, 0xBE, 0xB6, 0xDD, 0xDD, 0x3D,
    0x27, 0xF3, 0xDF, 0xBD, 0x0E, 0x7B, 0x5B, 0xBE, 0x96, 0x77, 0x89, 0x3E,
    0x98, 0x1B, 0x4F, 0x3E, 0x50, 0x98, 0xCD, 0xBC, 0xDB, 0x32, 0xAD, 0xBE,
    0xCC, 0x33, 0x5B, 0x3D, 0xD2, 0x08, 0xF4, 0x3E, 0x56, 0xE4, 0x1C, 0xBE,
    0x8D, 0x4D, 0x18, 0xBD, 0x7F, 0x6D, 0xC5, 0x3D, 0x4E, 0x70, 0x54, 0xBE,
    0x3E, 0x30, 0x9A, 0xBE, 0x18, 0xEA, 0x99, 0xBE, 0x04, 0x0B, 0xA5, 0x3D,
    0xD2, 0xCE, 0x89, 0xBD, 0x8E, 0x8A, 0xCE, 0xBD, 0x2B, 0xAE, 0xC4, 0xBE,
    0x16, 0xFF, 0xFF, 0xFF, 0x04, 0x00, 0x00, 0x00, 0x40, 0x00, 0x00, 0x00,
    0x09, 0xA4, 0x26, 0xBE, 0xAB, 0x87, 0xA8, 0x3E, 0x48, 0x2D, 0xD5, 0xBE,
    0x14, 0xDD, 0xC2, 0xBE, 0xC9, 0x4A, 0x16, 0xBF, 0x00, 0x1E, 0x92, 0x3E,
    0x4D, 0x04, 0x2A, 0xBE, 0x56, 0x31, 0x0B, 0xBE, 0xCF, 0x8C, 0x08, 0x3F,
    0x84, 0x81, 0x9A, 0x3E, 0x27, 0xBC, 0x26, 0xBE, 0xED, 0x85, 0x02, 0xBF,
    0xF2, 0x6D, 0x41, 0x3E, 0xF9, 0x6A, 0xD5, 0x3E, 0x7C, 0x41, 0xE9, 0x3E,
    0x1F, 0x53, 0xFE, 0xBE, 0x62, 0xFF, 0xFF, 0xFF, 0x04, 0x00, 0x00, 0x00,
    0x04, 0x00, 0x00, 0x00, 0x97, 0x7B, 0x67, 0xBC, 0x72, 0xFF, 0xFF, 0xFF,
    0x04, 0x00, 0x00, 0x00, 0x80, 0x00, 0x00, 0x00, 0xAC, 0x5A, 0x33, 0xBD,
    0x56, 0xC1, 0x34, 0xBD, 0xEE, 0x3C, 0x44, 0xBD, 0x8B, 0xFE, 0xE4, 0x3D,
    0x3A, 0x08, 0xC5, 0x3C, 0xCB, 0x51, 0xCB, 0xBD, 0x63, 0x53, 0xEB, 0x3D,
    0x30, 0xC5, 0xBD, 0xBD, 0x1E, 0xF9, 0x9B, 0x3C, 0xC5, 0x46, 0xBA, 0x3D,
    0xD2, 0x3C, 0x43, 0x3D, 0x45, 0xE9, 0x59, 0xBC, 0xA0, 0x31, 0x02, 0x3E,
    0xF9, 0x34, 0x1E, 0x3E, 0x71, 0x25, 0x0C, 0x3E, 0x42, 0x06, 0x42, 0x3D,
    0xE3, 0xF7, 0x4A, 0x3E, 0x17, 0xF6, 0xB9, 0x3C, 0x8A, 0x02, 0x22, 0x3D,
    0x7C, 0xA6, 0x4A, 0x3B, 0x29, 0x6B, 0x9B, 0x3D, 0xD1, 0x2F, 0xC0, 0xBC,
    0x06, 0xFC, 0x01, 0x3D, 0x77, 0x06, 0x30, 0x3E, 0x0C, 0x28, 0x8A, 0x3B,
    0x69, 0xE8, 0x16, 0x3E, 0x7B, 0x3B, 0xED, 0xBC, 0x52, 0xAF, 0xC1, 0x3C,
    0x56, 0x03, 0xE0, 0xB9, 0x93, 0xA0, 0x60, 0xBD, 0xB6, 0xFA, 0xD4, 0xBD,
    0xB3, 0x2E, 0xE9, 0xBD, 0x00, 0x00, 0x06, 0x00, 0x08, 0x00, 0x04, 0x00,
    0x06, 0x00, 0x00, 0x00, 0x04, 0x00, 0x00, 0x00, 0x40, 0x00, 0x00, 0x00,
    0x31, 0xE7, 0x12, 0x3D, 0xC0, 0xD4, 0xEA, 0x3C, 0xF5, 0x19, 0x0E, 0xBD,
    0xD4, 0x73, 0x9E, 0x3D, 0x21, 0x5E, 0x88, 0x3D, 0xCC, 0xF0, 0xEE, 0x3C,
    0x86, 0xB1, 0xA6, 0x3D, 0x7E, 0x1A, 0x7C, 0x3D, 0xBD, 0x0F, 0xFA, 0x3D,
    0xB4, 0x2D, 0x7B, 0x3A, 0xE9, 0x5A, 0x5B, 0x3C, 0xF2, 0xB3, 0x82, 0xBD,
    0x84, 0xB8, 0xF4, 0xBD, 0xA6, 0xE0, 0x28, 0x3C, 0xCB, 0x4E, 0x7A, 0x3D,
    0x95, 0x41, 0x45, 0x3E, 0x94, 0xF8, 0xFF, 0xFF, 0x98, 0xF8, 0xFF, 0xFF,
    0x0F, 0x00, 0x00, 0x00, 0x4D, 0x4C, 0x49, 0x52, 0x20, 0x43, 0x6F, 0x6E,
    0x76, 0x65, 0x72, 0x74, 0x65, 0x64, 0x2E, 0x00, 0x01, 0x00, 0x00, 0x00,
    0x14, 0x00, 0x00, 0x00, 0x00, 0x00, 0x0E, 0x00, 0x18, 0x00, 0x14, 0x00,
    0x10, 0x00, 0x0C, 0x00, 0x08, 0x00, 0x04, 0x00, 0x0E, 0x00, 0x00, 0x00,
    0x14, 0x00, 0x00, 0x00, 0x1C, 0x00, 0x00, 0x00, 0x98, 0x01, 0x00, 0x00,
    0x9C, 0x01, 0x00, 0x00, 0xA0, 0x01, 0x00, 0x00, 0x04, 0x00, 0x00, 0x00,
    0x6D, 0x61, 0x69, 0x6E, 0x00, 0x00, 0x00, 0x00, 0x06, 0x00, 0x00, 0x00,
    0x50, 0x01, 0x00, 0x00, 0x0C, 0x01, 0x00, 0x00, 0xB8, 0x00, 0x00, 0x00,
    0x6C, 0x00, 0x00, 0x00, 0x34, 0x00, 0x00, 0x00, 0x10, 0x00, 0x00, 0x00,
    0x00, 0x00, 0x0A, 0x00, 0x10, 0x00, 0x0C, 0x00, 0x08, 0x00, 0x04, 0x00,
    0x0A, 0x00, 0x00, 0x00, 0x0C, 0x00, 0x00, 0x00, 0x10, 0x00, 0x00, 0x00,
    0x03, 0x00, 0x00, 0x00, 0x01, 0x00, 0x00, 0x00, 0x0E, 0x00, 0x00, 0x00,
    0x01, 0x00, 0x00, 0x00, 0x0D, 0x00, 0x00, 0x00, 0x42, 0xFF, 0xFF, 0xFF,
    0x14, 0x00, 0x00, 0x00, 0x00, 0x00, 0x00, 0x08, 0x10, 0x00, 0x00, 0x00,
    0x14, 0x00, 0x00, 0x00, 0x02, 0x00, 0x00, 0x00, 0x4C, 0xF9, 0xFF, 0xFF,
    0x01, 0x00, 0x00, 0x00, 0x0D, 0x00, 0x00, 0x00, 0x03, 0x00, 0x00, 0x00,
    0x0C, 0x00, 0x00, 0x00, 0x04, 0x00, 0x00, 0x00, 0x03, 0x00, 0x00, 0x00,
    0x76, 0xFF, 0xFF, 0xFF, 0x14, 0x00, 0x00, 0x00, 0x00, 0x00, 0x00, 0x08,
    0x14, 0x00, 0x00, 0x00, 0x18, 0x00, 0x00, 0x00, 0x02, 0x00, 0x00, 0x00,
    0xB6, 0xFF, 0xFF, 0xFF, 0x00, 0x00, 0x00, 0x01, 0x01, 0x00, 0x00, 0x00,
    0x0C, 0x00, 0x00, 0x00, 0x03, 0x00, 0x00, 0x00, 0x0B, 0x00, 0x00, 0x00,
    0x05, 0x00, 0x00, 0x00, 0x01, 0x00, 0x00, 0x00, 0x00, 0x00, 0x0E, 0x00,
    0x1A, 0x00, 0x14, 0x00, 0x10, 0x00, 0x0C, 0x00, 0x0B, 0x00, 0x04, 0x00,
    0x0E, 0x00, 0x00, 0x00, 0x1C, 0x00, 0x00, 0x00, 0x00, 0x00, 0x00, 0x08,
    0x1C, 0x00, 0x00, 0x00, 0x20, 0x00, 0x00, 0x00, 0x02, 0x00, 0x00, 0x00,
    0x00, 0x00, 0x06, 0x00, 0x08, 0x00, 0x07, 0x00, 0x06, 0x00, 0x00, 0x00,
    0x00, 0x00, 0x00, 0x01, 0x01, 0x00, 0x00, 0x00, 0x0B, 0x00, 0x00, 0x00,
    0x03, 0x00, 0x00, 0x00, 0x0A, 0x00, 0x00, 0x00, 0x06, 0x00, 0x00, 0x00,
    0x02, 0x00, 0x00, 0x00, 0x00, 0x00, 0x0E, 0x00, 0x18, 0x00, 0x14, 0x00,
    0x10, 0x00, 0x0C, 0x00, 0x0B, 0x00, 0x04, 0x00, 0x0E, 0x00, 0x00, 0x00,
    0x14, 0x00, 0x00, 0x00, 0x00, 0x00, 0x00, 0x15, 0x10, 0x00, 0x00, 0x00,
    0x14, 0x00, 0x00, 0x00, 0x01, 0x00, 0x00, 0x00, 0x18, 0xFA, 0xFF, 0xFF,
    0x01, 0x00, 0x00, 0x00, 0x0A, 0x00, 0x00, 0x00, 0x02, 0x00, 0x00, 0x00,
    0x09, 0x00, 0x00, 0x00, 0x07, 0x00, 0x00, 0x00, 0x00, 0x00, 0x0E, 0x00,
    0x14, 0x00, 0x00, 0x00, 0x10, 0x00, 0x0C, 0x00, 0x0B, 0x00, 0x04, 0x00,
    0x0E, 0x00, 0x00, 0x00, 0x10, 0x00, 0x00, 0x00, 0x00, 0x00, 0x00, 0x1C,
    0x0C, 0x00, 0x00, 0x00, 0x10, 0x00, 0x00, 0x00, 0x54, 0xFA, 0xFF, 0xFF,
    0x01, 0x00, 0x00, 0x00, 0x09, 0x00, 0x00, 0x00, 0x02, 0x00, 0x00, 0x00,
    0x00, 0x00, 0x00, 0x00, 0x08, 0x00, 0x00, 0x00, 0x01, 0x00, 0x00, 0x00,
    0x0E, 0x00, 0x00, 0x00, 0x01, 0x00, 0x00, 0x00, 0x00, 0x00, 0x00, 0x00,
    0x0F, 0x00, 0x00, 0x00, 0x68, 0x05, 0x00, 0x00, 0xE8, 0x04, 0x00, 0x00,
    0x84, 0x04, 0x00, 0x00, 0x3C, 0x04, 0x00, 0x00, 0xEC, 0x03, 0x00, 0x00,
    0x9C, 0x03, 0x00, 0x00, 0x50, 0x03, 0x00, 0x00, 0xD4, 0x02, 0x00, 0x00,
    0x9C, 0x02, 0x00, 0x00, 0x48, 0x02, 0x00, 0x00, 0xCC, 0x01, 0x00, 0x00,
    0x48, 0x01, 0x00, 0x00, 0xBC, 0x00, 0x00, 0x00, 0x50, 0x00, 0x00, 0x00,
    0x04, 0x00, 0x00, 0x00, 0xEA, 0xFA, 0xFF, 0xFF, 0x00, 0x00, 0x00, 0x01,
    0x10, 0x00, 0x00, 0x00, 0x10, 0x00, 0x00, 0x00, 0x0F, 0x00, 0x00, 0x00,
    0x28, 0x00, 0x00, 0x00, 0xD4, 0xFA, 0xFF, 0xFF, 0x1B, 0x00, 0x00, 0x00,
    0x53, 0x74, 0x61, 0x74, 0x65, 0x66, 0x75, 0x6C, 0x50, 0x61, 0x72, 0x74,
    0x69, 0x74, 0x69, 0x6F, 0x6E, 0x65, 0x64, 0x43, 0x61, 0x6C, 0x6C, 0x5F,
    0x31, 0x3A, 0x30, 0x00, 0x02, 0x00, 0x00, 0x00, 0x20, 0x00, 0x00, 0x00,
    0x01, 0x00, 0x00, 0x00, 0x32, 0xFB, 0xFF, 0xFF, 0x00, 0x00, 0x00, 0x01,
    0x10, 0x00, 0x00, 0x00, 0x10, 0x00, 0x00, 0x00, 0x0E, 0x00, 0x00, 0x00,
    0x48, 0x00, 0x00, 0x00, 0x1C, 0xFB, 0xFF, 0xFF, 0x38, 0x00, 0x00, 0x00,
    0x73, 0x65, 0x71, 0x75, 0x65, 0x6E, 0x74, 0x69, 0x61, 0x6C, 0x5F, 0x31,
    0x2F, 0x64, 0x65, 0x6E, 0x73, 0x65, 0x5F, 0x32, 0x5F, 0x31, 0x2F, 0x4D,
    0x61, 0x74, 0x4D, 0x75, 0x6C, 0x3B, 0x73, 0x65, 0x71, 0x75, 0x65, 0x6E,
    0x74, 0x69, 0x61, 0x6C, 0x5F, 0x31, 0x2F, 0x64, 0x65, 0x6E, 0x73, 0x65,
    0x5F, 0x32, 0x5F, 0x31, 0x2F, 0x41, 0x64, 0x64, 0x00, 0x00, 0x00, 0x00,
    0x02, 0x00, 0x00, 0x00, 0x20, 0x00, 0x00, 0x00, 0x01, 0x00, 0x00, 0x00,
    0x9A, 0xFB, 0xFF, 0xFF, 0x00, 0x00, 0x00, 0x01, 0x10, 0x00, 0x00, 0x00,
    0x10, 0x00, 0x00, 0x00, 0x0D, 0x00, 0x00, 0x00, 0x68, 0x00, 0x00, 0x00,
    0x84, 0xFB, 0xFF, 0xFF, 0x58, 0x00, 0x00, 0x00, 0x73, 0x65, 0x71, 0x75,
    0x65, 0x6E, 0x74, 0x69, 0x61, 0x6C, 0x5F, 0x31, 0x2F, 0x64, 0x65, 0x6E,
    0x73, 0x65, 0x5F, 0x31, 0x5F, 0x32, 0x2F, 0x4D, 0x61, 0x74, 0x4D, 0x75,
    0x6C, 0x3B, 0x73, 0x65, 0x71, 0x75, 0x65, 0x6E, 0x74, 0x69, 0x61, 0x6C,
    0x5F, 0x31, 0x2F, 0x64, 0x65, 0x6E, 0x73, 0x65, 0x5F, 0x31, 0x5F, 0x32,
    0x2F, 0x52, 0x65, 0x6C, 0x75, 0x3B, 0x73, 0x65, 0x71, 0x75, 0x65, 0x6E,
    0x74, 0x69, 0x61, 0x6C, 0x5F, 0x31, 0x2F, 0x64, 0x65, 0x6E, 0x73, 0x65,
    0x5F, 0x31, 0x5F, 0x32, 0x2F, 0x42, 0x69, 0x61, 0x73, 0x41, 0x64, 0x64,
    0x00, 0x00, 0x00, 0x00, 0x02, 0x00, 0x00, 0x00, 0x20, 0x00, 0x00, 0x00,
    0x10, 0x00, 0x00, 0x00, 0x22, 0xFC, 0xFF, 0xFF, 0x00, 0x00, 0x00, 0x01,
    0x10, 0x00, 0x00, 0x00, 0x10, 0x00, 0x00, 0x00, 0x0C, 0x00, 0x00, 0x00,
    0x60, 0x00, 0x00, 0x00, 0x0C, 0xFC, 0xFF, 0xFF, 0x52, 0x00, 0x00, 0x00,
    0x73, 0x65, 0x71, 0x75, 0x65, 0x6E, 0x74, 0x69, 0x61, 0x6C, 0x5F, 0x31,
    0x2F, 0x64, 0x65, 0x6E, 0x73, 0x65, 0x5F, 0x31, 0x2F, 0x4D, 0x61, 0x74,
    0x4D, 0x75, 0x6C, 0x3B, 0x73, 0x65, 0x71, 0x75, 0x65, 0x6E, 0x74, 0x69,
    0x61, 0x6C, 0x5F, 0x31, 0x2F, 0x64, 0x65, 0x6E, 0x73, 0x65, 0x5F, 0x31,
    0x2F, 0x52, 0x65, 0x6C, 0x75, 0x3B, 0x73, 0x65, 0x71, 0x75, 0x65, 0x6E,
    0x74, 0x69, 0x61, 0x6C, 0x5F, 0x31, 0x2F, 0x64, 0x65, 0x6E, 0x73, 0x65,
    0x5F, 0x31, 0x2F, 0x42, 0x69, 0x61, 0x73, 0x41, 0x64, 0x64, 0x00, 0x00,
    0x02, 0x00, 0x00, 0x00, 0x20, 0x00, 0x00, 0x00, 0x20, 0x00, 0x00, 0x00,
    0xA2, 0xFC, 0xFF, 0xFF, 0x00, 0x00, 0x00, 0x01, 0x10, 0x00, 0x00, 0x00,
    0x10, 0x00, 0x00, 0x00, 0x0B, 0x00, 0x00, 0x00, 0x58, 0x00, 0x00, 0x00,
    0x8C, 0xFC, 0xFF, 0xFF, 0x4A, 0x00, 0x00, 0x00, 0x73, 0x65, 0x71, 0x75,
    0x65, 0x6E, 0x74, 0x69, 0x61, 0x6C, 0x5F, 0x31, 0x2F, 0x6E, 0x6F, 0x72,
    0x6D, 0x61, 0x6C, 0x69, 0x7A, 0x61, 0x74, 0x69, 0x6F, 0x6E, 0x5F, 0x31,
    0x2F, 0x74, 0x72, 0x75, 0x65, 0x64, 0x69, 0x76, 0x3B, 0x73, 0x65, 0x71,
    0x75, 0x65, 0x6E, 0x74, 0x69, 0x61, 0x6C, 0x5F, 0x31, 0x2F, 0x6E, 0x6F,
    0x72, 0x6D, 0x61, 0x6C, 0x69, 0x7A, 0x61, 0x74, 0x69, 0x6F, 0x6E, 0x5F,
    0x31, 0x2F, 0x4D, 0x61, 0x78, 0x69, 0x6D, 0x75, 0x6D, 0x31, 0x00, 0x00,
    0x02, 0x00, 0x00, 0x00, 0x20, 0x00, 0x00, 0x00, 0x1C, 0x00, 0x00, 0x00,
    0x1A, 0xFD, 0xFF, 0xFF, 0x00, 0x00, 0x00, 0x01, 0x10, 0x00, 0x00, 0x00,
    0x10, 0x00, 0x00, 0x00, 0x0A, 0x00, 0x00, 0x00, 0x30, 0x00, 0x00, 0x00,
    0x04, 0xFD, 0xFF, 0xFF, 0x20, 0x00, 0x00, 0x00, 0x73, 0x65, 0x71, 0x75,
    0x65, 0x6E, 0x74, 0x69, 0x61, 0x6C, 0x5F, 0x31, 0x2F, 0x6E, 0x6F, 0x72,
    0x6D, 0x61, 0x6C, 0x69, 0x7A, 0x61, 0x74, 0x69, 0x6F, 0x6E, 0x5F, 0x31,
    0x2F, 0x53, 0x75, 0x62, 0x00, 0x00, 0x00, 0x00, 0x02, 0x00, 0x00, 0x00,
    0x20, 0x00, 0x00, 0x00, 0x1C, 0x00, 0x00, 0x00, 0x6A, 0xFD, 0xFF, 0xFF,
    0x00, 0x00, 0x00, 0x01, 0x10, 0x00, 0x00, 0x00, 0x10, 0x00, 0x00, 0x00,
    0x09, 0x00, 0x00, 0x00, 0x14, 0x00, 0x00, 0x00, 0x54, 0xFD, 0xFF, 0xFF,
    0x07, 0x00, 0x00, 0x00, 0x43, 0x6F, 0x6E, 0x73, 0x74, 0x5F, 0x31, 0x00,
    0x02, 0x00, 0x00, 0x00, 0x01, 0x00, 0x00, 0x00, 0x1C, 0x00, 0x00, 0x00,
    0x9E, 0xFD, 0xFF, 0xFF, 0x00, 0x00, 0x00, 0x01, 0x10, 0x00, 0x00, 0x00,
    0x10, 0x00, 0x00, 0x00, 0x08, 0x00, 0x00, 0x00, 0x58, 0x00, 0x00, 0x00,
    0x88, 0xFD, 0xFF, 0xFF, 0x49, 0x00, 0x00, 0x00, 0x73, 0x65, 0x71, 0x75,
    0x65, 0x6E, 0x74, 0x69, 0x61, 0x6C, 0x5F, 0x31, 0x2F, 0x6E, 0x6F, 0x72,
    0x6D, 0x61, 0x6C, 0x69, 0x7A, 0x61, 0x74, 0x69, 0x6F, 0x6E, 0x5F, 0x31,
    0x2F, 0x74, 0x72, 0x75, 0x65, 0x64, 0x69, 0x76, 0x3B, 0x73, 0x65, 0x71,
    0x75, 0x65, 0x6E, 0x74, 0x69, 0x61, 0x6C, 0x5F, 0x31, 0x2F, 0x6E, 0x6F,
    0x72, 0x6D, 0x61, 0x6C, 0x69, 0x7A, 0x61, 0x74, 0x69, 0x6F, 0x6E, 0x5F,
    0x31, 0x2F, 0x4D, 0x61, 0x78, 0x69, 0x6D, 0x75, 0x6D, 0x00, 0x00, 0x00,
    0x02, 0x00, 0x00, 0x00, 0x01, 0x00, 0x00, 0x00, 0x1C, 0x00, 0x00, 0x00,
    0x16, 0xFE, 0xFF, 0xFF, 0x00, 0x00, 0x00, 0x01, 0x10, 0x00, 0x00, 0x00,
    0x10, 0x00, 0x00, 0x00, 0x07, 0x00, 0x00, 0x00, 0x28, 0x00, 0x00, 0x00,
    0x00, 0xFE, 0xFF, 0xFF, 0x1B, 0x00, 0x00, 0x00, 0x73, 0x65, 0x71, 0x75,
    0x65, 0x6E, 0x74, 0x69, 0x61, 0x6C, 0x5F, 0x31, 0x2F, 0x64, 0x65, 0x6E,
    0x73, 0x65, 0x5F, 0x31, 0x2F, 0x4D, 0x61, 0x74, 0x4D, 0x75, 0x6C, 0x00,
    0x02, 0x00, 0x00, 0x00, 0x20, 0x00, 0x00, 0x00, 0x1C, 0x00, 0x00, 0x00,
    0x5E, 0xFE, 0xFF, 0xFF, 0x00, 0x00, 0x00, 0x01, 0x10, 0x00, 0x00, 0x00,
    0x10, 0x00, 0x00, 0x00, 0x06, 0x00, 0x00, 0x00, 0x2C, 0x00, 0x00, 0x00,
    0x48, 0xFE, 0xFF, 0xFF, 0x1D, 0x00, 0x00, 0x00, 0x73, 0x65, 0x71, 0x75,
    0x65, 0x6E, 0x74, 0x69, 0x61, 0x6C, 0x5F, 0x31, 0x2F, 0x64, 0x65, 0x6E,
    0x73, 0x65, 0x5F, 0x31, 0x5F, 0x32, 0x2F, 0x4D, 0x61, 0x74, 0x4D, 0x75,
    0x6C, 0x00, 0x00, 0x00, 0x02, 0x00, 0x00, 0x00, 0x10, 0x00, 0x00, 0x00,
    0x20, 0x00, 0x00, 0x00, 0xAA, 0xFE, 0xFF, 0xFF, 0x00, 0x00, 0x00, 0x01,
    0x10, 0x00, 0x00, 0x00, 0x10, 0x00, 0x00, 0x00, 0x05, 0x00, 0x00, 0x00,
    0x2C, 0x00, 0x00, 0x00, 0x94, 0xFE, 0xFF, 0xFF, 0x1D, 0x00, 0x00, 0x00,
    0x73, 0x65, 0x71, 0x75, 0x65, 0x6E, 0x74, 0x69, 0x61, 0x6C, 0x5F, 0x31,
    0x2F, 0x64, 0x65, 0x6E, 0x73, 0x65, 0x5F, 0x32, 0x5F, 0x31, 0x2F, 0x4D,
    0x61, 0x74, 0x4D, 0x75, 0x6C, 0x00, 0x00, 0x00, 0x02, 0x00, 0x00, 0x00,
    0x01, 0x00, 0x00, 0x00, 0x10, 0x00, 0x00, 0x00, 0xF6, 0xFE, 0xFF, 0xFF,
    0x00, 0x00, 0x00, 0x01, 0x10, 0x00, 0x00, 0x00, 0x10, 0x00, 0x00, 0x00,
    0x04, 0x00, 0x00, 0x00, 0x28, 0x00, 0x00, 0x00, 0xE0, 0xFE, 0xFF, 0xFF,
    0x1A, 0x00, 0x00, 0x00, 0x73, 0x65, 0x71, 0x75, 0x65, 0x6E, 0x74, 0x69,
    0x61, 0x6C, 0x5F, 0x31, 0x2F, 0x64, 0x65, 0x6E, 0x73, 0x65, 0x5F, 0x32,
    0x5F, 0x31, 0x2F, 0x41, 0x64, 0x64, 0x00, 0x00, 0x01, 0x00, 0x00, 0x00,
    0x01, 0x00, 0x00, 0x00, 0x3A, 0xFF, 0xFF, 0xFF, 0x00, 0x00, 0x00, 0x01,
    0x10, 0x00, 0x00, 0x00, 0x10, 0x00, 0x00, 0x00, 0x03, 0x00, 0x00, 0x00,
    0x44, 0x00, 0x00, 0x00, 0x24, 0xFF, 0xFF, 0xFF, 0x36, 0x00, 0x00, 0x00,
    0x73, 0x65, 0x71, 0x75, 0x65, 0x6E, 0x74, 0x69, 0x61, 0x6C, 0x5F, 0x31,
    0x2F, 0x64, 0x65, 0x6E, 0x73, 0x65, 0x5F, 0x31, 0x2F, 0x52, 0x65, 0x6C,
    0x75, 0x3B, 0x73, 0x65, 0x71, 0x75, 0x65, 0x6E, 0x74, 0x69, 0x61, 0x6C,
    0x5F, 0x31, 0x2F, 0x64, 0x65, 0x6E, 0x73, 0x65, 0x5F, 0x31, 0x2F, 0x42,
    0x69, 0x61, 0x73, 0x41, 0x64, 0x64, 0x00, 0x00, 0x01, 0x00, 0x00, 0x00,
    0x20, 0x00, 0x00, 0x00, 0x9A, 0xFF, 0xFF, 0xFF, 0x00, 0x00, 0x00, 0x01,
    0x10, 0x00, 0x00, 0x00, 0x10, 0x00, 0x00, 0x00, 0x02, 0x00, 0x00, 0x00,
    0x48, 0x00, 0x00, 0x00, 0x84, 0xFF, 0xFF, 0xFF, 0x3A, 0x00, 0x00, 0x00,
    0x73, 0x65, 0x71, 0x75, 0x65, 0x6E, 0x74, 0x69, 0x61, 0x6C, 0x5F, 0x31,
    0x2F, 0x64, 0x65, 0x6E, 0x73, 0x65, 0x5F, 0x31, 0x5F, 0x32, 0x2F, 0x52,
    0x65, 0x6C, 0x75, 0x3B, 0x73, 0x65, 0x71, 0x75, 0x65, 0x6E, 0x74, 0x69,
    0x61, 0x6C, 0x5F, 0x31, 0x2F, 0x64, 0x65, 0x6E, 0x73, 0x65, 0x5F, 0x31,
    0x5F, 0x32, 0x2F, 0x42, 0x69, 0x61, 0x73, 0x41, 0x64, 0x64, 0x00, 0x00,
    0x01, 0x00, 0x00, 0x00, 0x10, 0x00, 0x00, 0x00, 0x00, 0x00, 0x16, 0x00,
    0x18, 0x00, 0x14, 0x00, 0x00, 0x00, 0x10, 0x00, 0x0C, 0x00, 0x08, 0x00,
    0x00, 0x00, 0x00, 0x00, 0x00, 0x00, 0x07, 0x00, 0x16, 0x00, 0x00, 0x00,
    0x00, 0x00, 0x00, 0x01, 0x14, 0x00, 0x00, 0x00, 0x14, 0x00, 0x00, 0x00,
    0x01, 0x00, 0x00, 0x00, 0x30, 0x00, 0x00, 0x00, 0x04, 0x00, 0x04, 0x00,
    0x04, 0x00, 0x00, 0x00, 0x1E, 0x00, 0x00, 0x00, 0x73, 0x65, 0x72, 0x76,
    0x69, 0x6E, 0x67, 0x5F, 0x64, 0x65, 0x66, 0x61, 0x75, 0x6C, 0x74, 0x5F,
    0x6B, 0x65, 0x72, 0x61, 0x73, 0x5F, 0x74, 0x65, 0x6E, 0x73, 0x6F, 0x72,
    0x3A, 0x30, 0x00, 0x00, 0x02, 0x00, 0x00, 0x00, 0x20, 0x00, 0x00, 0x00,
    0x1C, 0x00, 0x00, 0x00, 0x04, 0x00, 0x00, 0x00, 0x40, 0x00, 0x00, 0x00,
    0x24, 0x00, 0x00, 0x00, 0x14, 0x00, 0x00, 0x00, 0x04, 0x00, 0x00, 0x00,
    0xDC, 0xFF, 0xFF, 0xFF, 0x0E, 0x00, 0x00, 0x00, 0x00, 0x00, 0x00, 0x0E,
    0xE8, 0xFF, 0xFF, 0xFF, 0x09, 0x00, 0x00, 0x00, 0x00, 0x00, 0x00, 0x09,
    0xF4, 0xFF, 0xFF, 0xFF, 0x12, 0x00, 0x00, 0x00, 0x00, 0x00, 0x00, 0x12,
    0x0C, 0x00, 0x0C, 0x00, 0x0B, 0x00, 0x00, 0x00, 0x00, 0x00, 0x04, 0x00,
    0x0C, 0x00, 0x00, 0x00, 0x29, 0x00, 0x00, 0x00, 0x00, 0x00, 0x00, 0x29
};

static const unsigned int mlp_model_tflite_len = 8760;
