#pragma once

#include <stdint.h>

// Auto-generated by mlp.py — do not edit by hand.
// Re-run mlp.py to regenerate after retraining.
static const uint8_t mlp_model_tflite[] = {
    0x1C, 0x00, 0x00, 0x00, 0x54, 0x46, 0x4C, 0x33, 0x14, 0x00, 0x20, 0x00,
    0x1C, 0x00, 0x18, 0x00, 0x14, 0x00, 0x10, 0x00, 0x0C, 0x00, 0x00, 0x00,
    0x08, 0x00, 0x04, 0x00, 0x14, 0x00, 0x00, 0x00, 0x1C, 0x00, 0x00, 0x00,
    0x8C, 0x00, 0x00, 0x00, 0xE4, 0x00, 0x00, 0x00, 0x20, 0x1A, 0x00, 0x00,
    0x30, 0x1A, 0x00, 0x00, 0xB4, 0x21, 0x00, 0x00, 0x03, 0x00, 0x00, 0x00,
    0x01, 0x00, 0x00, 0x00, 0x04, 0x00, 0x00, 0x00, 0x8A, 0xE5, 0xFF, 0xFF,
    0x0C, 0x00, 0x00, 0x00, 0x1C, 0x00, 0x00, 0x00, 0x3C, 0x00, 0x00, 0x00,
    0x0F, 0x00, 0x00, 0x00, 0x73, 0x65, 0x72, 0x76, 0x69, 0x6E, 0x67, 0x5F,
    0x64, 0x65, 0x66, 0x61, 0x75, 0x6C, 0x74, 0x00, 0x01, 0x00, 0x00, 0x00,
    0x04, 0x00, 0x00, 0x00, 0x90, 0xFF, 0xFF, 0xFF, 0x0E, 0x00, 0x00, 0x00,
    0x04, 0x00, 0x00, 0x00, 0x08, 0x00, 0x00, 0x00, 0x6F, 0x75, 0x74, 0x70,
    0x75, 0x74, 0x5F, 0x30, 0x00, 0x00, 0x00, 0x00, 0x01, 0x00, 0x00, 0x00,
    0x04, 0x00, 0x00, 0x00, 0xA2, 0xE6, 0xFF, 0xFF, 0x04, 0x00, 0x00, 0x00,
    0x0C, 0x00, 0x00, 0x00, 0x6B, 0x65, 0x72, 0x61, 0x73, 0x5F, 0x74, 0x65,
    0x6E, 0x73, 0x6F, 0x72, 0x00, 0x00, 0x00, 0x00, 0x02, 0x00, 0x00, 0x00,
    0x34, 0x00, 0x00, 0x00, 0x04, 0x00, 0x00, 0x00, 0xDC, 0xFF, 0xFF, 0xFF,
    0x11, 0x00, 0x00, 0x00, 0x04, 0x00, 0x00, 0x00, 0x13, 0x00, 0x00, 0x00,
    0x43, 0x4F, 0x4E, 0x56, 0x45, 0x52, 0x53, 0x49, 0x4F, 0x4E, 0x5F, 0x4D,
    0x45, 0x54, 0x41, 0x44, 0x41, 0x54, 0x41, 0x00, 0x08, 0x00, 0x0C, 0x00,
    0x08, 0x00, 0x04, 0x00, 0x08, 0x00, 0x00, 0x00, 0x10, 0x00, 0x00, 0x00,
    0x04, 0x00, 0x00, 0x00, 0x13, 0x00, 0x00, 0x00, 0x6D, 0x69, 0x6E, 0x5F,
    0x72, 0x75, 0x6E, 0x74, 0x69, 0x6D, 0x65, 0x5F, 0x76, 0x65, 0x72, 0x73,
    0x69, 0x6F, 0x6E, 0x00, 0x12, 0x00, 0x00, 0x00, 0x38, 0x19, 0x00, 0x00,
    0x30, 0x19, 0x00, 0x00, 0xE0, 0x18, 0x00, 0x00, 0x48, 0x18, 0x00, 0x00,
    0x34, 0x18, 0x00, 0x00, 0xE4, 0x17, 0x00, 0x00, 0xD4, 0x0F, 0x00, 0x00,
    0xC4, 0x01, 0x00, 0x00, 0x44, 0x01, 0x00, 0x00, 0xC4, 0x00, 0x00, 0x00,
    0xBC, 0x00, 0x00, 0x00, 0xB4, 0x00, 0x00, 0x00, 0xAC, 0x00, 0x00, 0x00,
    0xA4, 0x00, 0x00, 0x00, 0x9C, 0x00, 0x00, 0x00, 0x94, 0x00, 0x00, 0x00,
    0x74, 0x00, 0x00, 0x00, 0x04, 0x00, 0x00, 0x00, 0x66, 0xE7, 0xFF, 0xFF,
    0x04, 0x00, 0x00, 0x00, 0x60, 0x00, 0x00, 0x00, 0x0C, 0x00, 0x00, 0x00,
    0x08, 0x00, 0x0E, 0x00, 0x08, 0x00, 0x04, 0x00, 0x08, 0x00, 0x00, 0x00,
    0x10, 0x00, 0x00, 0x00, 0x28, 0x00, 0x00, 0x00, 0x00, 0x00, 0x06, 0x00,
    0x08, 0x00, 0x04, 0x00, 0x06, 0x00, 0x00, 0x00, 0x04, 0x00, 0x00, 0x00,
    0x01, 0x00, 0x00, 0x00, 0xEA, 0x03, 0x00, 0x00, 0x0C, 0x00, 0x18, 0x00,
    0x14, 0x00, 0x10, 0x00, 0x0C, 0x00, 0x04, 0x00, 0x0C, 0x00, 0x00, 0x00,
    0x9D, 0xE8, 0x2F, 0x8A, 0x2A, 0x95, 0x11, 0x5B, 0x02, 0x00, 0x00, 0x00,
    0x02, 0x00, 0x00, 0x00, 0x04, 0x00, 0x00, 0x00, 0x06, 0x00, 0x00, 0x00,
    0x32, 0x2E, 0x32, 0x31, 0x2E, 0x30, 0x00, 0x00, 0xD2, 0xE7, 0xFF, 0xFF,
    0x04, 0x00, 0x00, 0x00, 0x10, 0x00, 0x00, 0x00, 0x31, 0x2E, 0x31, 0x34,
    0x2E, 0x30, 0x00, 0x00, 0x00, 0x00, 0x00, 0x00, 0x00, 0x00, 0x00, 0x00,
    0x30, 0xE0, 0xFF, 0xFF, 0x34, 0xE0, 0xFF, 0xFF, 0x38, 0xE0, 0xFF, 0xFF,
    0x3C, 0xE0, 0xFF, 0xFF, 0x40, 0xE0, 0xFF, 0xFF, 0x44, 0xE0, 0xFF, 0xFF,
    0x06, 0xE8, 0xFF, 0xFF, 0x04, 0x00, 0x00, 0x00, 0x70, 0x00, 0x00, 0x00,
    0x7C, 0x0F, 0xF6, 0x41, 0x03, 0xA7, 0xAA, 0xC0, 0xCC, 0xEE, 0xC9, 0xBD,
    0x40, 0x4E, 0x49, 0xBE, 0xA3, 0x41, 0xA0, 0xBC, 0xF8, 0x97, 0xB9, 0xBE,
    0xEC, 0x04, 0x7C, 0xBE, 0x3F, 0x4E, 0xA2, 0xBF, 0x8D, 0xED, 0x9F, 0xBF,
    0xA9, 0x60, 0xC7, 0xBF, 0xD4, 0xC5, 0xCD, 0xBF, 0x3B, 0x3C, 0x61, 0xC0,
    0x6E, 0x48, 0xC8, 0xC0, 0x61, 0x9A, 0x19, 0xC1, 0x10, 0x62, 0x0A, 0xC1,
    0x17, 0x5C, 0x51, 0x42, 0xCD, 0xCC, 0x7A, 0xBF, 0xBF, 0xA8, 0xE2, 0x3F,
    0x8F, 0x87, 0x5B, 0xC0, 0xFC, 0xFD, 0x94, 0x3F, 0xE6, 0x81, 0x23, 0xC1,
    0xA1, 0x10, 0x3F, 0x3E, 0x2E, 0x4C, 0x45, 0xC0, 0x5D, 0xD5, 0xFF, 0xBE,
    0x34, 0xED, 0x98, 0xC1, 0x5D, 0x29, 0xDB, 0xC1, 0x3B, 0xA8, 0x05, 0xC2,
    0xB3, 0x30, 0x18, 0x41, 0x82, 0xE8, 0xFF, 0xFF, 0x04, 0x00, 0x00, 0x00,
    0x70, 0x00, 0x00, 0x00, 0x48, 0xDC, 0x43, 0x3E, 0xCE, 0x32, 0xCC, 0x3C,
    0x98, 0xF0, 0xEC, 0x3E, 0xEC, 0x77, 0xB2, 0x3E, 0x4A, 0x1F, 0xC4, 0x3E,
    0x67, 0xF7, 0xB2, 0x3E, 0xBE, 0x72, 0x81, 0x3E, 0xA8, 0x03, 0xF3, 0x3D,
    0x73, 0x42, 0x02, 0x3E, 0x1F, 0x87, 0xD7, 0x3D, 0xFF, 0x5F, 0x8F, 0x3D,
    0x06, 0xB7, 0x85, 0x3D, 0x0D, 0x7B, 0x4F, 0x3D, 0x35, 0x23, 0x07, 0x3D,
    0xEA, 0x6F, 0xF9, 0x3C, 0xA4, 0xCF, 0x23, 0x3B, 0xCB, 0x22, 0xCE, 0x3C,
    0x29, 0xFE, 0xC0, 0x3C, 0x3B, 0x18, 0xBD, 0x3C, 0xC5, 0x11, 0xA8, 0x3C,
    0x09, 0xD2, 0x41, 0x3C, 0x17, 0x07, 0x25, 0x3C, 0x21, 0xBB, 0x13, 0x3C,
    0x29, 0x97, 0xD4, 0x3B, 0xCE, 0xA9, 0xA8, 0x3B, 0x00, 0xAB, 0x88, 0x3B,
    0x08, 0xD5, 0x3D, 0x3B, 0x46, 0x10, 0x21, 0x3B, 0xFE, 0xE8, 0xFF, 0xFF,
    0x04, 0x00, 0x00, 0x00, 0x00, 0x0E, 0x00, 0x00, 0xF5, 0x5C, 0x14, 0xBE,
    0x18, 0x3C, 0x3D, 0x3E, 0x34, 0xE8, 0xCE, 0x3D, 0xAA, 0x90, 0x02, 0xBD,
    0x09, 0xE1, 0x8A, 0xBE, 0xCF, 0x8A, 0x22, 0xBE, 0x14, 0x3E, 0xA1, 0xBD,
    0x00, 0x5A, 0x01, 0xB6, 0x75, 0x98, 0xDE, 0x3D, 0xC1, 0x12, 0x43, 0xBD,
    0x03, 0xA6, 0xC7, 0xBD, 0x1D, 0x45, 0x79, 0xBE, 0x61, 0xF9, 0x43, 0x3C,
    0x82, 0x8A, 0x21, 0xBD, 0x4C, 0x39, 0x4D, 0x3E, 0x4B, 0x16, 0x62, 0x3E,
    0x41, 0x69, 0x11, 0x3E, 0x68, 0x22, 0x55, 0x3E, 0x77, 0x86, 0x11, 0xBE,
    0xA9, 0x92, 0x47, 0xBC, 0x37, 0xE0, 0xB0, 0xBE, 0x49, 0xBC, 0x90, 0x3E,
    0x11, 0x73, 0x4D, 0xBE, 0xE0, 0x36, 0xC2, 0xBD, 0x0E, 0x4C, 0x62, 0xBE,
    0x31, 0xFD, 0x2A, 0xBE, 0xD4, 0x2C, 0x3B, 0x3E, 0xA4, 0x9B, 0x7E, 0x3E,
    0x87, 0xEB, 0xA2, 0x3E, 0x61, 0xC4, 0xFE, 0x3C, 0x6F, 0x75, 0x79, 0x3D,
    0xB8, 0xA2, 0x9D, 0xBD, 0x1D, 0x48, 0x32, 0xBE, 0x11, 0x6B, 0x9C, 0x3E,
    0x8D, 0x77, 0x13, 0x3D, 0x56, 0xE9, 0x89, 0x3C, 0x52, 0x1A, 0xB0, 0xBE,
    0xD3, 0x60, 0x1C, 0x3E, 0xF0, 0x42, 0x5D, 0xBE, 0x70, 0xE0, 0x9B, 0x3E,
    0xBA, 0xF6, 0x1A, 0xBE, 0xF3, 0xE1, 0x0A, 0x3E, 0xA0, 0x58, 0x7F, 0x3D,
    0xD6, 0x15, 0x55, 0x3E, 0x79, 0x14, 0x2E, 0x3E, 0x2D, 0x1A, 0xC7, 0x3D,
    0x87, 0xD1, 0xB6, 0xBD, 0xFF, 0xA4, 0xA7, 0x3C, 0x25, 0x05, 0x7C, 0x3C,
    0x92, 0x53, 0x52, 0xBE, 0xAE, 0x77, 0x85, 0xBC, 0x5D, 0x96, 0x84, 0xBE,
    0x6B, 0x8E, 0xA1, 0x3E, 0xA2, 0x21, 0xB3, 0x3D, 0xA1, 0x07, 0x45, 0xBC,
    0x07, 0xD1, 0x67, 0xBE, 0x93, 0x54, 0x18, 0xBD, 0x01, 0x90, 0x2B, 0xBE,
    0x43, 0x58, 0x6A, 0x3E, 0x10, 0x27, 0x50, 0xBE, 0x4A, 0x6C, 0x5E, 0xBE,
    0x07, 0x95, 0xA1, 0x3E, 0xFF, 0x5A, 0x5A, 0xBE, 0xCF, 0xCA, 0x92, 0x3E,
    0xF5, 0xF3, 0x87, 0x3E, 0x28, 0xEB, 0x7D, 0x3E, 0x26, 0xCB, 0xF9, 0x3D,
    0xB8, 0xDA, 0x76, 0x3D, 0x73, 0x3D, 0x9B, 0xBE, 0x0C, 0xFD, 0x3F, 0x3E,
    0xAB, 0xFA, 0xEA, 0xBE, 0x4A, 0x81, 0x27, 0xBE, 0x08, 0xB4, 0x71, 0xBE,
    0x1A, 0x09, 0xA8, 0x3D, 0x96, 0xB7, 0xA7, 0x3E, 0x12, 0xC4, 0x21, 0x3E,
    0x14, 0xC7, 0x5E, 0x3E, 0x81, 0xC5, 0x38, 0x3E, 0x7F, 0xE5, 0xC8, 0xBD,
    0x84, 0x03, 0x8B, 0x3D, 0x10, 0x30, 0x35, 0xBE, 0xF8, 0xFD, 0x81, 0x3D,
    0x27, 0x3F, 0x3E, 0x3E, 0x43, 0xCC, 0xAB, 0xBD, 0x96, 0x30, 0x90, 0x3D,
    0xF0, 0xC0, 0xF9, 0x3D, 0x36, 0x45, 0xB1, 0xBD, 0x7F, 0xB0, 0xD1, 0xBD,
    0xC4, 0xFB, 0x12, 0xBE, 0x5C, 0xA2, 0xB8, 0x3D, 0xBC, 0x7E, 0x98, 0xBE,
    0x81, 0xFA, 0xE4, 0x3D, 0xB6, 0x17, 0x22, 0x3E, 0x38, 0x95, 0x8F, 0xBD,
    0xA1, 0x98, 0x8B, 0x3E, 0x38, 0x88, 0x55, 0x3E, 0x59, 0x8B, 0x40, 0xBE,
    0x81, 0xCB, 0x89, 0x3E, 0xC5, 0x84, 0x05, 0xBE, 0xDE, 0x0A, 0x4D, 0xBD,
    0xB5, 0x8B, 0x46, 0x3D, 0x43, 0x8D, 0x23, 0x3E, 0x80, 0xC3, 0xF3, 0x3D,
    0xA6, 0xF6, 0x28, 0xBD, 0x00, 0x68, 0xCB, 0x3D, 0x1C, 0x31, 0x41, 0x3E,
    0xE3, 0x8B, 0x7B, 0x3E, 0xBD, 0x97, 0xDA, 0xBD, 0x6F, 0x08, 0xB1, 0x3E,
    0xDE, 0x2E, 0x07, 0x3E, 0xF4, 0x55, 0x3A, 0x3E, 0x07, 0xBF, 0xFA, 0xBD,
    0xB0, 0x6A, 0xBE, 0xBE, 0xDD, 0xDC, 0x8A, 0x3E, 0x8C, 0xD6, 0x92, 0x3E,
    0x32, 0x1A, 0x8C, 0x3E, 0x65, 0xB0, 0x82, 0xBE, 0xF7, 0xB5, 0xA6, 0xBD,
    0xA5, 0x4A, 0xFE, 0x3D, 0xE0, 0x03, 0x6B, 0x3E, 0x11, 0x1E, 0x73, 0x3E,
    0xE5, 0xCF, 0xEA, 0x3D, 0xA6, 0x09, 0x3A, 0x3E, 0xAD, 0x64, 0x92, 0x3E,
    0x4B, 0x72, 0x13, 0xBE, 0x04, 0x6C, 0xC2, 0xBE, 0x21, 0xED, 0xE3, 0x3C,
    0x11, 0x31, 0x04, 0xBD, 0xD2, 0x99, 0x1A, 0xBE, 0x5B, 0x3E, 0x95, 0xBE,
    0xEE, 0x32, 0x89, 0x3D, 0xB5, 0x9A, 0x3E, 0x3E, 0xF5, 0x35, 0x65, 0x3E,
    0x2C, 0xC0, 0x7E, 0x3E, 0x61, 0xDE, 0x30, 0x3D, 0x34, 0x4F, 0x67, 0xBE,
    0xC5, 0x70, 0xC1, 0xBD, 0x03, 0x63, 0x1B, 0x3E, 0x71, 0x8F, 0x43, 0xBE,
    0xDD, 0x9D, 0x49, 0xBE, 0xD0, 0x52, 0x68, 0x3E, 0x32, 0xAF, 0x43, 0x3E,
    0xCC, 0x02, 0x19, 0x3E, 0x92, 0xF1, 0x6E, 0x3D, 0x02, 0x2C, 0xAF, 0xBD,
    0x30, 0xB3, 0x83, 0xBE, 0xE8, 0x2E, 0x8A, 0x3E, 0xC0, 0x75, 0x8C, 0xBE,
    0x72, 0xBC, 0xE3, 0xBE, 0x77, 0xEE, 0x9C, 0xBE, 0xF8, 0xAE, 0x43, 0x3E,
    0x63, 0xCF, 0x65, 0x3C, 0x32, 0x14, 0xC7, 0x3D, 0x07, 0xD8, 0x5C, 0x3E,
    0x44, 0x7A, 0x66, 0xBE, 0xF9, 0x21, 0x23, 0xBE, 0xA5, 0x19, 0x04, 0xBE,
    0x8A, 0x42, 0xCA, 0xBD, 0x2E, 0xBC, 0x5A, 0x3E, 0xEE, 0x25, 0x3A, 0x3E,
    0xB8, 0xCC, 0x34, 0xBD, 0xD8, 0x31, 0x1A, 0xBD, 0x17, 0xA1, 0xB4, 0x3D,
    0x17, 0xDB, 0x07, 0x3E, 0xEB, 0xB8, 0x07, 0xBE, 0xF0, 0x37, 0x92, 0x3C,
    0x6C, 0x23, 0x4C, 0xBE, 0x1F, 0xC6, 0x14, 0x3E, 0xF6, 0x0E, 0xBE, 0x3E,
    0x34, 0xD2, 0x96, 0x3E, 0x5D, 0xD4, 0xA5, 0xBD, 0x4A, 0x39, 0x23, 0xBE,
    0x30, 0x6D, 0x6E, 0xBE, 0x8B, 0x0B, 0x61, 0x3E, 0x8A, 0x64, 0x23, 0xBE,
    0x11, 0x4E, 0x87, 0xBD, 0x52, 0x07, 0x8D, 0xBE, 0xB3, 0x25, 0x99, 0x3E,
    0x1F, 0xDF, 0x94, 0xBE, 0x59, 0x41, 0x5A, 0xBE, 0x37, 0x87, 0x72, 0x3E,
    0xDB, 0xDA, 0x47, 0xBD, 0x98, 0x54, 0x32, 0xBC, 0x4F, 0x7E, 0x97, 0xBE,
    0xCA, 0xF5, 0xAB, 0x3D, 0x05, 0xA7, 0xC5, 0xBD, 0x80, 0x62, 0x26, 0xBE,
    0xA9, 0x80, 0x91, 0xBD, 0xDD, 0xC7, 0x44, 0xBE, 0xF6, 0x49, 0x5E, 0x3E,
    0xA5, 0x5F, 0x66, 0x3E, 0x2E, 0xBF, 0x4E, 0xBE, 0x5A, 0x2E, 0x8D, 0x3E,
    0x91, 0xCA, 0x46, 0x3D, 0x08, 0x95, 0xF8, 0xBD, 0x35, 0xFD, 0x3A, 0xBE,
    0x98, 0xDB, 0x2F, 0xBE, 0x39, 0xBA, 0xC0, 0xBD, 0xD0, 0x96, 0x6F, 0x3E,
    0x1D, 0x22, 0xA4, 0x3E, 0x24, 0x3A, 0xAF, 0xBC, 0x4A, 0x9B, 0x6E, 0x3D,
    0xCA, 0x55, 0x86, 0x3E, 0xDF, 0x3A, 0xA0, 0x3E, 0x7B, 0xDD, 0x39, 0x3E,
    0xC0, 0xBB, 0xBF, 0x3C, 0x73, 0x0E, 0xD5, 0x39, 0xF2, 0x39, 0xF4, 0xBB,
    0xAC, 0x2D, 0x87, 0xBE, 0xF1, 0x6B, 0xF3, 0xBD, 0x0F, 0xDC, 0x51, 0xBE,
    0xE7, 0xD0, 0x65, 0x3E, 0x3F, 0x62, 0x9B, 0xBE, 0x7B, 0x32, 0x60, 0x3E,
    0x7A, 0x2B, 0x4C, 0x3E, 0x45, 0x1C, 0xE2, 0xBD, 0xE1, 0x50, 0x2F, 0x3E,
    0x53, 0xA3, 0x31, 0x3E, 0x0A, 0x57, 0x4E, 0x3E, 0x9A, 0xFC, 0x05, 0x3E,
    0xF4, 0xF8, 0x64, 0xBE, 0x72, 0x80, 0x32, 0xBC, 0xB8, 0xF6, 0x10, 0xBE,
    0x79, 0x7A, 0x8C, 0x3D, 0x3C, 0x14, 0xAF, 0x3E, 0xC3, 0xA3, 0x7A, 0xBE,
    0x77, 0x20, 0xDB, 0xBC, 0x15, 0x43, 0x83, 0x3E, 0x07, 0xF9, 0x22, 0xBD,
    0x00, 0xC4, 0x8D, 0xBE, 0xBF, 0x29, 0x7B, 0x3E, 0x44, 0x80, 0xBE, 0x3E,
    0x09, 0x7F, 0x40, 0xBE, 0x87, 0xEC, 0x26, 0x3D, 0x0E, 0xD4, 0xD7, 0xBD,
    0xC7, 0xBC, 0x4B, 0xBE, 0x5D, 0x6B, 0xC9, 0xBD, 0xE6, 0xA1, 0x3C, 0x3E,
    0x51, 0x5F, 0x33, 0xBE, 0xB7, 0xDC, 0x47, 0x3E, 0x62, 0x92, 0xA2, 0x3C,
    0x2E, 0xFC, 0x1B, 0xBE, 0x8A, 0x21, 0xB1, 0x3E, 0x35, 0xC7, 0xAA, 0x3D,
    0xC8, 0x2F, 0xA1, 0x3E, 0x92, 0x9F, 0x77, 0x3E, 0x2A, 0x2E, 0x74, 0xBE,
    0x7D, 0x05, 0x60, 0x3E, 0x25, 0x72, 0x7E, 0xBE, 0x87, 0x20, 0x7C, 0x3E,
    0x72, 0x39, 0x3C, 0xBE, 0x0C, 0x01, 0x68, 0xBE, 0xA2, 0x92, 0x59, 0xBD,
    0x3C, 0xCF, 0x84, 0xBE, 0xEF, 0xAC, 0x66, 0x3E, 0x02, 0xE1, 0x94, 0x3E,
    0xCB, 0xA0, 0x33, 0x3E, 0x68, 0xF3, 0x28, 0xBC, 0xA9, 0xD3, 0x38, 0xBE,
    0x18, 0xC4, 0xCA, 0xBD, 0x30, 0x37, 0xDC, 0x3D, 0x94, 0x6A, 0x99, 0x3E,
    0x8A, 0xC7, 0x13, 0x3E, 0xC6, 0xAB, 0x41, 0x3E, 0x22, 0x1C, 0xB7, 0xBC,
    0xE3, 0xFA, 0x7D, 0xBE, 0x7F, 0x74, 0xDB, 0xBC, 0xA6, 0xA7, 0x8C, 0xBE,
    0x31, 0xCD, 0x0E, 0xBE, 0x44, 0x9B, 0x4A, 0x3E, 0x6E, 0x3B, 0x68, 0xBD,
    0xE5, 0x67, 0x0C, 0x3E, 0x44, 0xF4, 0xA6, 0xBD, 0x35, 0x6F, 0xD4, 0x3D,
    0xAC, 0x03, 0xE7, 0x39, 0x6E, 0x77, 0x1B, 0x3D, 0xE1, 0xE3, 0x29, 0x3D,
    0x3C, 0xCE, 0x4D, 0xBE, 0xA7, 0xE9, 0x3A, 0x3E, 0x9E, 0xB6, 0xFA, 0xBD,
    0xC9, 0x1A, 0x82, 0xBD, 0xFD, 0x26, 0x0E, 0x3E, 0x64, 0x65, 0x2B, 0xBE,
    0x1D, 0x46, 0xC6, 0x3D, 0x2F, 0xFF, 0x1B, 0x3E, 0x4C, 0x59, 0x79, 0x3C,
    0xAF, 0xBC, 0x9C, 0xBC, 0x41, 0x2D, 0x85, 0xBE, 0x62, 0x73, 0xE8, 0xBD,
    0x52, 0x73, 0xD9, 0xBE, 0x6E, 0xFA, 0x44, 0xBE, 0x53, 0xB9, 0x71, 0x3E,
    0xBD, 0xBB, 0x3F, 0x3E, 0x3D, 0x97, 0x0C, 0x3E, 0xA0, 0x45, 0x99, 0x3D,
    0xD6, 0x13, 0x05, 0xBE, 0xD6, 0xA2, 0xCD, 0xBD, 0x6E, 0x53, 0x5F, 0x3C,
    0x99, 0x8A, 0x1C, 0x3E, 0x2F, 0xDD, 0x6C, 0x3E, 0xCF, 0x74, 0x59, 0x3D,
    0xE2, 0xFD, 0x9E, 0xBD, 0x64, 0x3A, 0x0A, 0xBE, 0x1E, 0x7E, 0xAC, 0xBD,
    0x7C, 0x24, 0xA9, 0x3E, 0xD8, 0x94, 0xE5, 0x3D, 0x9E, 0x72, 0xA5, 0xBD,
    0x6B, 0x08, 0x5C, 0xBD, 0x5A, 0x83, 0xA8, 0xBE, 0xC5, 0xCB, 0x61, 0xBD,
    0xD7, 0xA2, 0x38, 0xBE, 0x42, 0xA1, 0xA8, 0x3D, 0x81, 0xC1, 0x3F, 0x3D,
    0x7E, 0xC8, 0xDD, 0x3C, 0x18, 0x1D, 0x86, 0xBC, 0x8F, 0x9E, 0x0E, 0x3E,
    0x71, 0x3C, 0x2E, 0xBD, 0xF1, 0xCA, 0x07, 0xBE, 0x7C, 0x83, 0x57, 0xBD,
    0x6A, 0xFF, 0x01, 0xBE, 0xB6, 0xD7, 0x0C, 0x3E, 0x5D, 0x70, 0x26, 0x3D,
    0xA6, 0x49, 0xC3, 0xBE, 0x73, 0x7D, 0xD7, 0xBD, 0x66, 0x9B, 0xCE, 0xBD,
    0x6D, 0x0F, 0x95, 0xBC, 0x44, 0x59, 0x8E, 0x3D, 0xA2, 0x38, 0x0F, 0x3E,
    0xDC, 0xB0, 0xA9, 0x3D, 0x75, 0x9F, 0x6F, 0x3E, 0xA9, 0xF1, 0x47, 0x3D,
    0x25, 0x17, 0x24, 0xBE, 0x03, 0xBC, 0x5F, 0xBE, 0x4A, 0x09, 0x37, 0xBE,
    0x0C, 0x83, 0x21, 0xBE, 0xC3, 0x92, 0x39, 0xBE, 0xC6, 0x67, 0x17, 0x3E,
    0xFB, 0x58, 0x32, 0xBD, 0x12, 0x97, 0x73, 0xBE, 0x50, 0xB0, 0xF0, 0x3D,
    0xD2, 0x2F, 0x68, 0x3C, 0xE8, 0x94, 0xBA, 0x3D, 0xAF, 0x3D, 0x2D, 0xBE,
    0xDB, 0xCC, 0x93, 0xBD, 0xF7, 0x74, 0x77, 0xBE, 0x15, 0x80, 0x8C, 0x3D,
    0x82, 0x19, 0x7A, 0xBE, 0x7F, 0xFA, 0x74, 0x3E, 0xCC, 0x9F, 0x9C, 0x3E,
    0xEC, 0x99, 0x93, 0x3E, 0x82, 0xF5, 0x9D, 0xBE, 0xC5, 0xCD, 0x64, 0x3D,
    0x85, 0x22, 0xF1, 0xBD, 0x68, 0x0A, 0xC2, 0x3D, 0xE3, 0x13, 0xD5, 0x3D,
    0xA7, 0x97, 0x41, 0xBE, 0x9D, 0xE7, 0x4B, 0xBE, 0xDF, 0x7A, 0x21, 0x3D,
    0x48, 0x48, 0xA3, 0xBD, 0xE0, 0xE6, 0x21, 0xBE, 0x9D, 0x96, 0x41, 0xBE,
    0x2C, 0x5A, 0x87, 0xBE, 0x4E, 0x13, 0xF5, 0x3D, 0x2F, 0x56, 0xB8, 0xBD,
    0xA4, 0xCB, 0x44, 0x3E, 0xE5, 0x67, 0x3B, 0xBE, 0xA9, 0xA9, 0x3E, 0x3E,
    0x81, 0xB1, 0xB3, 0x3D, 0x55, 0x9C, 0x74, 0x3D, 0x6F, 0xF1, 0xFD, 0x3C,
    0xB7, 0x7E, 0x33, 0xBE, 0xDC, 0x00, 0x09, 0xBE, 0xCF, 0xC7, 0xAC, 0x3D,
    0x37, 0xEF, 0xA3, 0xBE, 0xEE, 0x05, 0xAC, 0xBD, 0x78, 0xBB, 0x7D, 0xBD,
    0x01, 0x3F, 0x95, 0x3E, 0xEB, 0x30, 0x2F, 0x3C, 0xA1, 0x16, 0xE8, 0xBA,
    0x71, 0xF1, 0x8A, 0x3E, 0xEA, 0x65, 0x08, 0xBE, 0x0C, 0xFC, 0x1D, 0xBE,
    0xC4, 0xCB, 0x01, 0x3E, 0xA5, 0x7F, 0x93, 0xBE, 0xE6, 0xE4, 0x8F, 0xBD,
    0xF8, 0xE2, 0xF3, 0xBD, 0x26, 0x48, 0x25, 0xBE, 0x49, 0x53, 0x8C, 0xBD,
    0xEC, 0x82, 0x1A, 0x3D, 0x87, 0xA1, 0xE7, 0xBD, 0xB4, 0xCD, 0x77, 0x3D,
    0xC0, 0xB9, 0x20, 0xBD, 0xC5, 0xAC, 0xA1, 0x3D, 0x04, 0x3D, 0x8F, 0xBD,
    0x65, 0x23, 0x72, 0xBE, 0xC3, 0xE7, 0x88, 0xBD, 0x2E, 0xCC, 0xD8, 0x3B,
    0x65, 0x15, 0x6E, 0xBD, 0x44, 0x41, 0x65, 0xBE, 0xFF, 0x1C, 0xAA, 0x3E,
    0x45, 0x94, 0x29, 0xBE, 0xFA, 0xE7, 0x8D, 0x3E, 0xF1, 0x32, 0x0D, 0x3D,
    0xEA, 0x77, 0xF9, 0xBB, 0xF0, 0x5D, 0x03, 0x3D, 0x71, 0x6B, 0x5A, 0x3E,
    0x60, 0xFF, 0x62, 0xBE, 0x04, 0xEA, 0x18, 0x3E, 0xC7, 0xE0, 0x7F, 0x3E,
    0x54, 0x8E, 0x8E, 0xBE, 0x44, 0x4E, 0x3D, 0xBE, 0x53, 0xC7, 0x74, 0x3E,
    0x77, 0x46, 0xA5, 0x3E, 0x43, 0x4E, 0x0C, 0x3E, 0x1D, 0xBE, 0xB1, 0xBD,
    0x34, 0x77, 0x01, 0xBE, 0xBB, 0xA6, 0xD1, 0xBD, 0x74, 0xDA, 0x60, 0xBE,
    0x42, 0x13, 0xA0, 0xBD, 0x06, 0xC8, 0x5B, 0xBE, 0xBA, 0x55, 0x44, 0xBE,
    0x6E, 0x6F, 0xD5, 0x3D, 0x2E, 0xF8, 0x62, 0xBE, 0xA4, 0xCE, 0x0F, 0x3E,
    0x56, 0x3E, 0x90, 0xBE, 0x1F, 0x25, 0xBF, 0x3D, 0xE3, 0x3F, 0x66, 0xBE,
    0xFD, 0xA3, 0xDA, 0xBD, 0x8F, 0xE3, 0xE1, 0x3D, 0x15, 0x78, 0xB9, 0xBE,
    0xE5, 0xC9, 0x0D, 0x3E, 0xCB, 0x60, 0x07, 0xBC, 0xAE, 0x78, 0xC6, 0x3A,
    0x83, 0xFE, 0x88, 0xBE, 0xD3, 0x3F, 0xF4, 0x3D, 0x5F, 0xB6, 0x8E, 0x3E,
    0xFA, 0x82, 0xEC, 0xBD, 0xA8, 0xF2, 0x18, 0x3E, 0xB5, 0xF8, 0x6F, 0xBE,
    0x7E, 0xEF, 0xD5, 0x3C, 0xDC, 0xA6, 0x0E, 0xBD, 0xAC, 0xF8, 0x39, 0xBE,
    0xC2, 0xCC, 0x3D, 0xBD, 0x48, 0x15, 0x18, 0xBD, 0xC3, 0x1D, 0x7D, 0xBE,
    0x0B, 0xF4, 0x4D, 0xBE, 0x93, 0x8B, 0x81, 0x3D, 0x38, 0x8D, 0x18, 0xBD,
    0x0D, 0x86, 0xB0, 0x3D, 0xA0, 0xC8, 0x0D, 0x3C, 0xD0, 0xEA, 0x2B, 0x3E,
    0x14, 0x1A, 0x51, 0xBE, 0x01, 0x3A, 0x8E, 0xBE, 0x56, 0xA5, 0x73, 0xBA,
    0xC8, 0x85, 0x3F, 0xBE, 0xD7, 0x7E, 0x20, 0x3E, 0xA1, 0x75, 0x5A, 0x3E,
    0x45, 0xFC, 0x2F, 0x3E, 0x38, 0x56, 0x35, 0x3E, 0xB5, 0xAA, 0x93, 0xBE,
    0xB9, 0x03, 0x34, 0x3E, 0x9B, 0x85, 0xC4, 0x3B, 0xD8, 0xB1, 0x5B, 0x3E,
    0x40, 0x25, 0xF0, 0xBB, 0x31, 0xC1, 0x1F, 0xBE, 0xCF, 0x18, 0xB2, 0x3B,
    0x25, 0xBB, 0x86, 0x3E, 0x07, 0xBC, 0x16, 0xBD, 0x72, 0xB8, 0x1A, 0x3D,
    0x06, 0x45, 0x06, 0x3E, 0xF4, 0x21, 0x5B, 0x3E, 0xB7, 0x5D, 0x0B, 0xBE,
    0xEF, 0x52, 0x9F, 0xBD, 0x58, 0xE0, 0xA8, 0xBE, 0x9F, 0x93, 0x05, 0xBD,
    0xEE, 0xDB, 0x6E, 0xBE, 0x42, 0x6A, 0x2F, 0xBD, 0x19, 0xC0, 0x22, 0xBE,
    0xB4, 0x16, 0xE8, 0xBD, 0x17, 0xC0, 0xA1, 0xBE, 0x77, 0x26, 0x99, 0xBE,
    0xB1, 0x98, 0x62, 0x3E, 0x3C, 0x1C, 0xAD, 0x3E, 0xAE, 0xCC, 0xD4, 0x3D,
    0x35, 0xEB, 0x1B, 0x3E, 0xAB, 0xA3, 0x88, 0x3E, 0x0C, 0x75, 0x7B, 0x3E,
    0x96, 0x0D, 0x05, 0xBE, 0x9B, 0xA3, 0xBF, 0xBE, 0xBC, 0xBB, 0x58, 0xBE,
    0xF1, 0x8C, 0xCF, 0xBE, 0xD5, 0x72, 0x20, 0xBE, 0x09, 0xBC, 0x81, 0x3D,
    0x22, 0xF4, 0xE4, 0xBC, 0x9E, 0xAF, 0x89, 0xBE, 0xFE, 0x5E, 0x87, 0xBD,
    0x26, 0x13, 0x32, 0xBE, 0xC6, 0xC7, 0x0D, 0x3E, 0xD3, 0x70, 0x6E, 0xBE,
    0x11, 0xEA, 0x95, 0x3C, 0x38, 0xA1, 0x50, 0x3E, 0xD0, 0x2E, 0x34, 0xBE,
    0x37, 0x49, 0xAA, 0xBE, 0xAE, 0x68, 0xA9, 0xBD, 0x4D, 0x55, 0xA5, 0x3D,
    0xE9, 0xB5, 0x51, 0xBE, 0xA8, 0x25, 0x4A, 0xBE, 0x7D, 0x85, 0x99, 0x3D,
    0x03, 0x45, 0xB4, 0xBC, 0x30, 0x12, 0x86, 0xBE, 0x1C, 0x47, 0x5B, 0xBE,
    0xF2, 0x5E, 0x0C, 0x3E, 0x8E, 0x49, 0x95, 0x3E, 0xA2, 0x28, 0x28, 0xBD,
    0x65, 0xB0, 0x6E, 0x3E, 0xE7, 0xFF, 0x09, 0xBE, 0x0B, 0xD7, 0x69, 0x3E,
    0xD3, 0x27, 0x5F, 0xBE, 0xE6, 0xCB, 0xAC, 0xBE, 0xBF, 0xD3, 0x05, 0x3E,
    0xFE, 0x08, 0x65, 0xBE, 0x3B, 0x6A, 0x93, 0xBE, 0x2F, 0xBD, 0x9C, 0x3E,
    0xC0, 0x63, 0xF8, 0x3D, 0x0B, 0x94, 0x4A, 0x3D, 0x8D, 0x1C, 0x22, 0xBE,
    0x33, 0xE1, 0x3A, 0x3E, 0x0E, 0x67, 0x1F, 0xBE, 0xAB, 0x76, 0xBA, 0x3D,
    0x72, 0x32, 0x05, 0xBD, 0x32, 0x8C, 0x27, 0x3E, 0x8F, 0xE7, 0x04, 0x3E,
    0x83, 0x3B, 0x15, 0x3E, 0x73, 0x12, 0x94, 0x3D, 0x4C, 0x86, 0x60, 0xBE,
    0x88, 0xD7, 0xAB, 0xBE, 0x61, 0x5B, 0x2C, 0x3E, 0x96, 0x35, 0x42, 0xBE,
    0x52, 0xDD, 0x8F, 0xBD, 0x30, 0xE5, 0xE5, 0xBC, 0x62, 0x33, 0xB3, 0x3B,
    0xB9, 0x68, 0x3E, 0xBE, 0x85, 0x56, 0x88, 0xBC, 0x52, 0x0C, 0x2A, 0x3E,
    0x2D, 0x56, 0x0C, 0x3E, 0x87, 0xE8, 0x24, 0xBE, 0x84, 0xF7, 0x9B, 0x3E,
    0xC4, 0x0E, 0xF3, 0x3D, 0xE5, 0x20, 0x2E, 0x3E, 0x94, 0x04, 0x78, 0x3E,
    0x54, 0x66, 0x27, 0x3E, 0x42, 0xD5, 0xD4, 0xBD, 0x2C, 0x63, 0xDD, 0x3D,
    0xA2, 0x60, 0x5B, 0x3E, 0xAA, 0xB5, 0x4C, 0x3D, 0xBE, 0x2E, 0x77, 0xBE,
    0x4F, 0x3D, 0x30, 0x3E, 0x0C, 0x37, 0x20, 0xBE, 0x27, 0xA7, 0x4B, 0xBD,
    0xC2, 0x25, 0x57, 0x3D, 0x70, 0x2D, 0x22, 0x3E, 0xCA, 0x32, 0xF4, 0x3C,
    0xD7, 0x26, 0x61, 0xBD, 0x39, 0x23, 0xE0, 0x3C, 0xF0, 0x5B, 0x02, 0x3E,
    0x46, 0x70, 0x15, 0xBD, 0x8F, 0x09, 0xC5, 0xBD, 0x7A, 0x90, 0x7C, 0x3E,
    0x93, 0xD9, 0x2A, 0xBC, 0x04, 0x17, 0x8F, 0xBE, 0xAE, 0xA3, 0xA5, 0xBE,
    0x2C, 0xD4, 0xAF, 0x3E, 0xC5, 0x8B, 0xF8, 0x3D, 0x1C, 0x66, 0x88, 0x3E,
    0x71, 0xC5, 0x6C, 0xBE, 0x89, 0xDC, 0xC0, 0xBE, 0xE9, 0xF4, 0x14, 0xBD,
    0xD3, 0x50, 0x29, 0xBE, 0xEE, 0xE7, 0x55, 0x3E, 0x13, 0x1F, 0x96, 0xBD,
    0x28, 0x7C, 0x86, 0x3E, 0x90, 0x16, 0xB2, 0xBE, 0x58, 0x4C, 0x82, 0x3E,
    0xAB, 0xDD, 0x61, 0x3E, 0xC8, 0x07, 0x4F, 0x3E, 0xBB, 0xC7, 0xA1, 0x3D,
    0x32, 0xB5, 0x5F, 0x3E, 0xC1, 0xD5, 0x6A, 0x3E, 0xCE, 0x48, 0xAB, 0xBE,
    0xC8, 0x7A, 0x9B, 0xBE, 0xE2, 0xD3, 0xB9, 0xBD, 0x1C, 0x9E, 0xC8, 0xBC,
    0x41, 0x6D, 0x96, 0xBE, 0x2F, 0xEB, 0x17, 0x3E, 0x28, 0xF3, 0x6A, 0xBE,
    0xEE, 0x94, 0xB5, 0xBD, 0x14, 0xA1, 0x21, 0xBE, 0x5D, 0x92, 0x21, 0xBE,
    0x63, 0x19, 0x24, 0xBE, 0x2D, 0x55, 0xD3, 0x3A, 0x53, 0x0A, 0x84, 0xBE,
    0x6A, 0xFF, 0x05, 0xBE, 0xFD, 0xDA, 0x3C, 0xBE, 0xAC, 0x95, 0x19, 0x3E,
    0x77, 0x17, 0x97, 0xBD, 0x8D, 0x75, 0x1A, 0xBE, 0xE3, 0x94, 0xD2, 0x3D,
    0x02, 0x5F, 0x16, 0xBE, 0x8F, 0x9E, 0xDB, 0x3D, 0x42, 0xF4, 0x95, 0x3E,
    0xEF, 0xAA, 0x7B, 0x3E, 0x4F, 0xF4, 0x22, 0xBD, 0xD1, 0x68, 0x54, 0xBE,
    0xC6, 0xDC, 0x96, 0xBE, 0x64, 0xFD, 0xA9, 0xBE, 0x46, 0xD3, 0x8D, 0x3B,
    0xC1, 0xAE, 0x96, 0xBD, 0x9B, 0xAA, 0xB7, 0xBA, 0x30, 0xFF, 0xD5, 0x3D,
    0xA2, 0x3E, 0x8C, 0xBE, 0x1A, 0x8B, 0x00, 0x3E, 0x76, 0x00, 0xAC, 0xBE,
    0x6D, 0xC0, 0x13, 0xBC, 0xE3, 0x48, 0xBD, 0xBE, 0x1C, 0x4A, 0x1C, 0xBD,
    0xAB, 0x87, 0x00, 0x3D, 0xFC, 0x4B, 0x8F, 0xBE, 0xEE, 0x4D, 0xD1, 0xBD,
    0xEE, 0x07, 0x13, 0x3D, 0x43, 0x85, 0x12, 0x3E, 0x54, 0x64, 0x06, 0x3E,
    0x03, 0x90, 0x91, 0xBD, 0x73, 0x7C, 0x44, 0xBE, 0x86, 0x3E, 0x89, 0xBE,
    0x48, 0xA8, 0x0D, 0xBE, 0xED, 0x6D, 0x31, 0x3E, 0x3A, 0x39, 0x5F, 0xBE,
    0xB1, 0x88, 0x06, 0xBE, 0xDE, 0x92, 0x6F, 0x3D, 0xF5, 0x53, 0x2E, 0xBE,
    0xE5, 0x8A, 0x94, 0xBE, 0xA1, 0xD9, 0x8A, 0x3E, 0xA4, 0x78, 0x67, 0x3D,
    0xC3, 0xE1, 0x67, 0xBE, 0xD6, 0xF3, 0x86, 0x3D, 0x9B, 0x91, 0x05, 0xBE,
    0xA7, 0xC9, 0x62, 0x3E, 0x90, 0xCD, 0x0E, 0xBC, 0xD4, 0xC7, 0x69, 0xBD,
    0x45, 0x02, 0xF8, 0xBD, 0x1F, 0x25, 0x8C, 0xBD, 0xC3, 0x58, 0x69, 0x3E,
    0xF5, 0x2A, 0x93, 0x3E, 0xE7, 0xF8, 0x0D, 0x3E, 0x8F, 0xCF, 0x33, 0x3E,
    0x5E, 0x99, 0x4C, 0x3E, 0xFF, 0x80, 0x51, 0xBE, 0x4E, 0x6C, 0x9E, 0xBE,
    0x30, 0x4D, 0x89, 0xBE, 0xDF, 0x64, 0x48, 0x3E, 0x1D, 0xB5, 0x1F, 0xBC,
    0xF8, 0x69, 0x7A, 0xBB, 0xDA, 0x30, 0x2C, 0x3B, 0xB2, 0xB3, 0x88, 0x3E,
    0xDF, 0x70, 0xA7, 0x3E, 0xB8, 0x0A, 0x31, 0x3E, 0xAA, 0xDE, 0x50, 0x3B,
    0x37, 0x5F, 0x14, 0x3E, 0x7D, 0x10, 0x2E, 0xBE, 0x81, 0x2D, 0x8F, 0xBD,
    0x48, 0x5C, 0x99, 0x3D, 0xB9, 0xCE, 0x81, 0xBE, 0xE4, 0xB3, 0x05, 0x3E,
    0x7B, 0xCC, 0x6D, 0xBE, 0xC5, 0x1C, 0x6B, 0xBC, 0x73, 0x2B, 0x83, 0xBE,
    0x5A, 0x47, 0x1D, 0xBE, 0x61, 0xBA, 0x04, 0xBE, 0xFB, 0xEF, 0x47, 0xBE,
    0x7A, 0xD0, 0xF6, 0x3D, 0x5F, 0x14, 0x40, 0x3B, 0xC9, 0x98, 0x85, 0xBE,
    0x46, 0x0D, 0x99, 0xBE, 0xAD, 0xF1, 0x97, 0x3E, 0x59, 0xBE, 0x86, 0xBD,
    0xAE, 0xEB, 0x6C, 0x3E, 0x9C, 0x1C, 0x18, 0xBE, 0x87, 0x4A, 0xAB, 0x3D,
    0x34, 0xD6, 0x8A, 0x3E, 0x99, 0x10, 0xB8, 0x3D, 0x01, 0x93, 0x80, 0x3E,
    0x21, 0x99, 0x83, 0xBE, 0xE2, 0x77, 0xB0, 0x3C, 0xBF, 0xCA, 0x66, 0x3E,
    0x8B, 0x0A, 0xA4, 0xBE, 0x12, 0x91, 0x9C, 0xBD, 0xA6, 0x11, 0x07, 0x3E,
    0x0F, 0x78, 0xAA, 0x3E, 0xCF, 0x26, 0x18, 0xBD, 0xD1, 0x87, 0x83, 0xBC,
    0xDB, 0x13, 0x13, 0x3C, 0x29, 0x1E, 0x60, 0xBE, 0x66, 0x4C, 0x61, 0x3E,
    0x29, 0x69, 0x42, 0xBD, 0x42, 0x64, 0xF5, 0x3C, 0x7B, 0x7B, 0x0B, 0x3E,
    0x25, 0x25, 0x89, 0x3E, 0x73, 0x7F, 0x26, 0x3E, 0x90, 0x74, 0xBA, 0xBE,
    0x29, 0x3E, 0x52, 0x3D, 0x34, 0x40, 0xB7, 0xBD, 0x86, 0x5D, 0xA9, 0x3D,
    0x4E, 0x11, 0xFE, 0xBD, 0xF2, 0x95, 0x1A, 0x3E, 0x5F, 0x89, 0x85, 0xBC,
    0x9C, 0x37, 0x93, 0x3D, 0xE2, 0x5C, 0xAF, 0x3E, 0x14, 0x7F, 0x63, 0x3E,
    0x01, 0xC8, 0x93, 0x3E, 0x73, 0x8F, 0xAB, 0x3D, 0xC0, 0xA8, 0x93, 0x3D,
    0x8F, 0xA7, 0xA4, 0xBE, 0x02, 0xC3, 0x9D, 0xBE, 0xC2, 0xA7, 0xD9, 0x3D,
    0x71, 0x7C, 0xB1, 0xBD, 0x4D, 0xA1, 0xCD, 0xBD, 0xDE, 0xB6, 0xB3, 0xBD,
    0xF6, 0x00, 0x92, 0xBD, 0xEF, 0xC6, 0x40, 0x3E, 0x64, 0x13, 0x59, 0x3E,
    0xFC, 0x10, 0x43, 0x3D, 0x74, 0x87, 0x50, 0xBC, 0xF2, 0xE6, 0x65, 0xBE,
    0x00, 0x84, 0xC9, 0xBD, 0x6C, 0x80, 0xED, 0x3D, 0xBC, 0xCD, 0x27, 0x3C,
    0xC7, 0x54, 0x15, 0xBE, 0xAB, 0x43, 0xC4, 0x3D, 0x75, 0xB8, 0x17, 0xBE,
    0x55, 0x4C, 0x78, 0x3D, 0xE2, 0x49, 0x41, 0x3D, 0x8D, 0x9A, 0x8E, 0x3E,
    0x18, 0x50, 0x87, 0x3D, 0xAF, 0xDE, 0x77, 0x3E, 0x97, 0xAB, 0x5D, 0xBE,
    0x2B, 0xA4, 0xCA, 0xBD, 0xFE, 0x32, 0x1C, 0xBD, 0x05, 0xA7, 0x77, 0xBE,
    0xCE, 0xF4, 0x9A, 0xBE, 0x69, 0x02, 0x5E, 0x3E, 0x15, 0xFF, 0x25, 0x3E,
    0x08, 0xAB, 0x79, 0xBD, 0x6B, 0xBF, 0x97, 0x3E, 0x84, 0x0C, 0x1A, 0xBC,
    0xF9, 0x2A, 0x0E, 0xBD, 0xE2, 0xEA, 0xD8, 0x3D, 0x3E, 0x69, 0x8D, 0xBE,
    0x39, 0x65, 0x2D, 0x3E, 0x1C, 0x6E, 0x3A, 0xBE, 0x03, 0x10, 0xB0, 0x3D,
    0x08, 0x30, 0xA4, 0x3E, 0x13, 0xA0, 0x8A, 0xBE, 0x19, 0x95, 0xFD, 0xBC,
    0x05, 0x91, 0x9E, 0x3E, 0x1F, 0xA0, 0xAD, 0x3D, 0xB8, 0x8B, 0x8C, 0xBE,
    0xF7, 0x83, 0xA9, 0xBD, 0x82, 0xBB, 0x51, 0x3E, 0xFD, 0x34, 0x34, 0xBD,
    0xA3, 0x8F, 0xFA, 0xBD, 0xC4, 0x6F, 0xC8, 0x3D, 0xBD, 0xD9, 0x65, 0xBE,
    0x0F, 0xDD, 0x6E, 0x3E, 0x2D, 0x77, 0x56, 0xBD, 0x82, 0xDF, 0x43, 0x3E,
    0x82, 0xF8, 0xE8, 0x3D, 0x02, 0x3B, 0x43, 0x3E, 0xF0, 0x4C, 0x2D, 0x3E,
    0x0D, 0x9B, 0x71, 0x3E, 0x08, 0x7B, 0x51, 0xBC, 0xF2, 0x70, 0x6B, 0x3E,
    0x53, 0x0D, 0x87, 0xBE, 0xC7, 0x96, 0x07, 0x3E, 0xE5, 0x2F, 0x64, 0x3E,
    0x24, 0x66, 0x86, 0xBE, 0x25, 0xAE, 0x3E, 0xBD, 0xB3, 0xA2, 0x1D, 0xBE,
    0xB3, 0xDB, 0x50, 0xBE, 0xC6, 0xB4, 0xB6, 0x3E, 0x1B, 0xB5, 0xA8, 0xBD,
    0x6B, 0x03, 0x77, 0x3E, 0x5F, 0x9D, 0xAB, 0x3E, 0x1E, 0xB6, 0x4A, 0x3E,
    0xC6, 0x58, 0x31, 0x3E, 0xB0, 0x58, 0x7F, 0xBD, 0x28, 0x92, 0x6F, 0xBD,
    0x6D, 0xD2, 0x84, 0x3E, 0x90, 0xDC, 0xD3, 0xBE, 0x41, 0x85, 0xEB, 0x3D,
    0x00, 0x36, 0xA6, 0xBE, 0xA9, 0x94, 0x95, 0x3D, 0xBE, 0xA4, 0x31, 0x3E,
    0x0B, 0xC9, 0x0E, 0xBE, 0xC7, 0x12, 0xC5, 0x3D, 0x2E, 0x35, 0x34, 0x3D,
    0x9C, 0xBA, 0xD3, 0x3D, 0xCF, 0x0E, 0xF4, 0x3C, 0x0C, 0x42, 0x2E, 0x3E,
    0xD8, 0xC1, 0x45, 0xBD, 0xD2, 0x79, 0x48, 0xBE, 0x35, 0xCF, 0xEE, 0xBC,
    0x48, 0x22, 0xF4, 0xBD, 0x0D, 0xDE, 0x81, 0x3E, 0x88, 0x66, 0x1E, 0xBE,
    0x5D, 0xA3, 0x8B, 0x3D, 0x35, 0xB4, 0x70, 0x3E, 0xF2, 0xF8, 0xF8, 0x3D,
    0x3A, 0xEB, 0x7B, 0xBE, 0x92, 0x60, 0x8E, 0xBD, 0xBF, 0x60, 0x12, 0xBD,
    0x45, 0xC5, 0x06, 0x3E, 0xFE, 0xD8, 0x0D, 0x3E, 0x6C, 0xF2, 0x9B, 0x3E,
    0x28, 0x33, 0xA9, 0x3D, 0x9E, 0x15, 0x33, 0x3E, 0x60, 0x75, 0x6F, 0x3E,
    0xA2, 0x25, 0x94, 0x3E, 0x15, 0x3B, 0x28, 0xBE, 0x56, 0xDA, 0xA4, 0x3D,
    0x25, 0xF2, 0xB2, 0x3E, 0x8F, 0x8F, 0xB5, 0xBD, 0x51, 0x71, 0x2F, 0x3E,
    0xC1, 0x9D, 0x84, 0x3E, 0xE0, 0xE2, 0xC6, 0xBD, 0xDF, 0x03, 0x7F, 0xBE,
    0x3C, 0xC6, 0x52, 0xBE, 0x03, 0x62, 0xDB, 0x3D, 0xDB, 0x23, 0xDA, 0xBD,
    0x08, 0x2E, 0x8D, 0xBD, 0xF9, 0xE8, 0x8B, 0x3D, 0x9C, 0xA8, 0x65, 0xBD,
    0xEA, 0xC5, 0x9F, 0xBE, 0x7C, 0x2E, 0x9F, 0xBC, 0x14, 0xDA, 0x8B, 0x3E,
    0x49, 0xCD, 0x95, 0x3D, 0xE0, 0x9D, 0x12, 0x3E, 0x5B, 0xF9, 0x34, 0x3E,
    0x66, 0x4D, 0x42, 0xBE, 0xB2, 0x71, 0xCC, 0xBD, 0x1A, 0x3D, 0x51, 0x3E,
    0x28, 0x68, 0xFE, 0xBD, 0x3C, 0x3E, 0x8B, 0xBE, 0x0C, 0x53, 0x2D, 0xBD,
    0xF5, 0xDD, 0x89, 0x3D, 0xCF, 0xF5, 0x2D, 0x3E, 0xA6, 0x2A, 0x64, 0xBD,
    0x32, 0x76, 0x42, 0x3E, 0x2F, 0xFE, 0xDE, 0x3D, 0x59, 0x05, 0x9F, 0xBD,
    0x03, 0x10, 0x3F, 0x3E, 0xEC, 0x94, 0xA2, 0xBE, 0x0C, 0x8C, 0x96, 0x3E,
    0xB8, 0xD6, 0xA9, 0x3D, 0x8A, 0x96, 0xB0, 0x3E, 0xFC, 0x4F, 0x68, 0xBE,
    0x1B, 0x8A, 0xDE, 0x3D, 0x19, 0x12, 0x66, 0xBE, 0xDD, 0x7C, 0x8D, 0xBE,
    0x77, 0x8A, 0x3F, 0x3E, 0x6F, 0xA2, 0x9F, 0xBE, 0x00, 0x83, 0x18, 0xBE,
    0xA3, 0x2C, 0xA0, 0xBE, 0xAA, 0x3A, 0x61, 0x3E, 0xC2, 0x33, 0xA0, 0xBE,
    0xB3, 0xF0, 0xCC, 0xBD, 0xFA, 0xC3, 0x2C, 0x3E, 0x0A, 0x7D, 0x18, 0x3E,
    0x14, 0x12, 0x87, 0x3D, 0xF9, 0x17, 0x60, 0x3E, 0xD6, 0x2F, 0x38, 0xBE,
    0x89, 0xA6, 0x7A, 0xBE, 0x71, 0x76, 0x40, 0xBE, 0x24, 0xD6, 0x2F, 0xBE,
    0xE3, 0x38, 0x8C, 0xBD, 0xDF, 0xCD, 0x58, 0xBE, 0xFD, 0x6A, 0x36, 0xBE,
    0xAF, 0xEE, 0x51, 0x3C, 0x98, 0x19, 0x8F, 0xBC, 0x99, 0x1A, 0xEC, 0xBD,
    0x05, 0x22, 0x84, 0x3E, 0x05, 0x8A, 0x87, 0x3E, 0x38, 0x48, 0xAE, 0x3E,
    0x3A, 0x8E, 0x97, 0xBE, 0x0D, 0x68, 0x80, 0x3E, 0x9E, 0xEF, 0x8F, 0x3D,
    0x55, 0x58, 0x27, 0xBB, 0x0A, 0xF7, 0xFF, 0xFF, 0x04, 0x00, 0x00, 0x00,
    0x00, 0x08, 0x00, 0x00, 0xF4, 0x09, 0xCC, 0xBE, 0xC1, 0x3A, 0x8B, 0xBE,
    0x9A, 0x4D, 0x97, 0x3E, 0xA6, 0xB3, 0x6E, 0xBE, 0x52, 0xA8, 0x8B, 0xBE,
    0x5F, 0x64, 0xD9, 0x3A, 0x19, 0x5E, 0xB1, 0xBE, 0xB4, 0x56, 0x8F, 0xBE,
    0x45, 0x7C, 0x32, 0x3E, 0x7C, 0xE4, 0x2C, 0x3E, 0x9F, 0xC1, 0x30, 0x3E,
    0x65, 0x0E, 0xA1, 0x3E, 0x3B, 0xA1, 0x45, 0xBE, 0x45, 0x24, 0x6C, 0x3E,
    0x28, 0x96, 0x88, 0xBC, 0x39, 0xDA, 0x52, 0x3E, 0xF4, 0x69, 0x93, 0x3E,
    0xF5, 0x21, 0x89, 0x3D, 0xBC, 0x0A, 0x9F, 0xBE, 0xE2, 0x63, 0x82, 0x3E,
    0x18, 0x7F, 0xF3, 0xBD, 0x82, 0xF7, 0xBA, 0xBE, 0xDF, 0xD9, 0xDE, 0x3D,
    0xF2, 0x2E, 0x64, 0x3E, 0x46, 0xD9, 0x14, 0x3E, 0xA9, 0x15, 0x36, 0x3C,
    0xC2, 0xCC, 0xA6, 0x3E, 0x0B, 0x0A, 0xC6, 0xBE, 0x9F, 0x21, 0x27, 0xBE,
    0xA4, 0xE0, 0x09, 0xBE, 0x4C, 0x83, 0x05, 0x3D, 0x0A, 0x3A, 0x00, 0x3E,
    0x68, 0x4F, 0xA1, 0xBD, 0x5E, 0x0E, 0x86, 0xBE, 0x9A, 0x72, 0x8D, 0x3E,
    0x37, 0xE5, 0xED, 0x3D, 0x56, 0xA7, 0xFD, 0x3D, 0x82, 0xC5, 0x4A, 0xBE,
    0x93, 0x34, 0xAE, 0xBE, 0xA8, 0x77, 0x7E, 0x3E, 0x8A, 0x5B, 0x7B, 0xBD,
    0xE8, 0x43, 0x97, 0x3E, 0x0C, 0x15, 0xEA, 0x3B, 0x38, 0xC7, 0xE0, 0x3E,
    0xB2, 0xE5, 0x7A, 0xBD, 0x9A, 0x11, 0x9F, 0xBE, 0xD7, 0xAF, 0x48, 0x3D,
    0xEE, 0xA7, 0x0B, 0xBD, 0xFE, 0x5E, 0xF6, 0xBD, 0x9B, 0xD7, 0xB9, 0xBD,
    0xDC, 0xBB, 0xD2, 0xBD, 0xC5, 0x12, 0x2D, 0xBE, 0x73, 0x14, 0x14, 0x3E,
    0xA5, 0x4C, 0x82, 0x3D, 0x35, 0x8B, 0x19, 0xBE, 0x53, 0xB1, 0x91, 0x3E,
    0xC1, 0xCE, 0x11, 0xBD, 0x83, 0x1A, 0x64, 0xBE, 0xCF, 0x74, 0x6C, 0x3E,
    0x5C, 0xA5, 0xA7, 0xBD, 0xC9, 0x00, 0xB6, 0x3D, 0xDA, 0x70, 0x4D, 0xBE,
    0x68, 0x73, 0xAD, 0xBE, 0x53, 0x29, 0xE9, 0x3D, 0xB9, 0xC5, 0x4F, 0x3E,
    0x73, 0xB0, 0x00, 0xBE, 0xD5, 0xD4, 0xA3, 0xBB, 0x07, 0x26, 0xBC, 0x3E,
    0xA0, 0xBD, 0xCA, 0x3E, 0xD2, 0x27, 0xD8, 0x3D, 0x2C, 0xB1, 0x9E, 0xBE,
    0x31, 0x7A, 0xB4, 0x3D, 0xCA, 0x06, 0x49, 0xBD, 0xC5, 0x25, 0x5A, 0xBE,
    0x5C, 0x06, 0x3C, 0xBE, 0x34, 0xA9, 0x3F, 0x3E, 0x1A, 0xC9, 0x98, 0xBE,
    0xDB, 0x21, 0x92, 0xBE, 0xAD, 0x5D, 0x28, 0xBD, 0xF5, 0xF3, 0x38, 0x3E,
    0x9C, 0xF9, 0x52, 0x3D, 0x3E, 0x79, 0x8E, 0xBD, 0x7B, 0x39, 0x13, 0xBD,
    0x1C, 0xD0, 0x40, 0xBE, 0x0E, 0x9E, 0x55, 0xBC, 0x2A, 0x4F, 0xC3, 0x3D,
    0x1B, 0xE2, 0x91, 0x3E, 0xAD, 0xB9, 0xA1, 0x3E, 0xAA, 0xA6, 0x57, 0xBE,
    0x02, 0x8B, 0xB6, 0x3E, 0x7A, 0x24, 0x94, 0x3E, 0x20, 0xDE, 0xB2, 0x3E,
    0x55, 0xFE, 0xEE, 0xBD, 0x0E, 0x81, 0x27, 0x3D, 0x7C, 0x7F, 0x4D, 0xBE,
    0x92, 0x41, 0x56, 0xBE, 0x07, 0x40, 0xF2, 0xBB, 0x98, 0x3E, 0xCE, 0x3E,
    0x48, 0xED, 0x56, 0xBE, 0x3B, 0xAB, 0xA7, 0xBE, 0xA8, 0xA5, 0x49, 0xBE,
    0xDF, 0x0B, 0x1E, 0x3E, 0x7F, 0x50, 0x55, 0x3D, 0x6E, 0x55, 0x88, 0x3C,
    0xE1, 0x0A, 0xA2, 0xBE, 0xAA, 0x89, 0x4A, 0x3E, 0x92, 0xEC, 0x39, 0x3E,
    0x9B, 0x8F, 0x19, 0x3E, 0x74, 0x08, 0x76, 0x3E, 0x01, 0x76, 0x15, 0xBC,
    0x0C, 0x48, 0x98, 0x3D, 0x9D, 0x06, 0x8F, 0x3E, 0x50, 0x2B, 0xC2, 0x3D,
    0xAB, 0xF0, 0x1C, 0xBD, 0xCB, 0x00, 0xDC, 0xBD, 0x69, 0xBF, 0x33, 0x3E,
    0xCD, 0xDA, 0xCB, 0x3E, 0x71, 0xB6, 0x4D, 0x3D, 0x0A, 0x8E, 0x90, 0xBD,
    0x11, 0xA3, 0x45, 0xBE, 0xF0, 0xD9, 0x70, 0xBE, 0x07, 0x3A, 0x89, 0x3E,
    0xB2, 0xB2, 0x7E, 0x3E, 0x2B, 0x6E, 0xFE, 0x3D, 0xDE, 0x91, 0x60, 0xBE,
    0x12, 0xF1, 0xA9, 0xBE, 0x3C, 0x16, 0x6C, 0x3E, 0xE4, 0xC2, 0x59, 0x3E,
    0x69, 0x67, 0x64, 0x3E, 0xCE, 0xA5, 0x89, 0x3E, 0xC7, 0xE8, 0x0E, 0xBD,
    0x23, 0x26, 0x3A, 0x3E, 0x90, 0x28, 0x16, 0xBE, 0x44, 0x61, 0x86, 0xBC,
    0x61, 0x66, 0xB7, 0x3D, 0x71, 0x80, 0x78, 0xBD, 0x91, 0x34, 0x91, 0xBE,
    0x01, 0x8D, 0xC4, 0xBD, 0x8A, 0x20, 0xB2, 0x3E, 0x7E, 0x5B, 0x7F, 0x3E,
    0x14, 0x2C, 0x8D, 0x3E, 0x81, 0x57, 0x8D, 0x3E, 0x9C, 0x57, 0x87, 0xBE,
    0xBD, 0x11, 0x91, 0x3E, 0x1D, 0x0F, 0x83, 0x3E, 0xB1, 0xC3, 0x36, 0xBE,
    0x11, 0x77, 0x52, 0xBE, 0x58, 0xB1, 0x08, 0x3B, 0x3B, 0x78, 0x04, 0x3E,
    0x82, 0xBF, 0x00, 0xBD, 0xA4, 0x71, 0x8F, 0xBC, 0xA3, 0x94, 0x23, 0x3D,
    0x65, 0x38, 0xC5, 0x3E, 0x50, 0x13, 0x23, 0x3E, 0x19, 0xD2, 0x7F, 0x3E,
    0x7A, 0x1B, 0x4F, 0x3E, 0xF7, 0x5A, 0x23, 0x3E, 0x14, 0xFE, 0x0C, 0xBA,
    0x8B, 0x3C, 0xA1, 0x3E, 0xA2, 0x39, 0x97, 0x3D, 0xEE, 0xBF, 0xD6, 0x3A,
    0xFF, 0xA4, 0x32, 0x3E, 0x05, 0x6C, 0x56, 0xBE, 0xA1, 0x04, 0xB4, 0xBE,
    0x3A, 0xB9, 0x16, 0x3E, 0xC0, 0xA2, 0xA2, 0xBE, 0xF8, 0xA1, 0x92, 0xBE,
    0x08, 0xE3, 0xCC, 0x3D, 0xCC, 0x23, 0x9F, 0x3D, 0x32, 0xB0, 0x80, 0x3E,
    0x84, 0xDF, 0x53, 0xBE, 0x37, 0xD1, 0xB5, 0x3E, 0x47, 0xFD, 0x33, 0x3E,
    0x7F, 0x16, 0x0E, 0xBE, 0x2C, 0x09, 0x3F, 0x3E, 0x47, 0x48, 0xBC, 0x3D,
    0x12, 0x27, 0xD0, 0xBC, 0xE1, 0xBA, 0x93, 0x3E, 0x39, 0x94, 0x7C, 0x3E,
    0x62, 0x7B, 0x81, 0x3E, 0x8C, 0xB3, 0x37, 0xBE, 0x99, 0xD1, 0xE4, 0x3D,
    0x70, 0x6C, 0xA7, 0xBE, 0x90, 0x14, 0x15, 0x3E, 0x0E, 0x2B, 0xE8, 0x3D,
    0xFE, 0xEA, 0x89, 0xBE, 0x7D, 0xA2, 0x2D, 0x3E, 0xFC, 0x7E, 0x89, 0x3E,
    0x28, 0xFC, 0xE6, 0x3D, 0xB3, 0x85, 0x5E, 0x3E, 0xDB, 0xEA, 0x20, 0x3E,
    0xCC, 0xC9, 0x84, 0xBE, 0xCC, 0x10, 0x8E, 0x3E, 0xCC, 0xBB, 0x69, 0xBD,
    0x1F, 0xFF, 0xB0, 0x3E, 0x66, 0x58, 0x5C, 0xBE, 0xCD, 0x49, 0x09, 0x3E,
    0x9D, 0x50, 0xA9, 0xBE, 0xAE, 0x82, 0x6B, 0x3D, 0xDB, 0x10, 0x85, 0x3E,
    0x9E, 0xFE, 0x57, 0xBE, 0xB8, 0x0F, 0x18, 0x3E, 0x60, 0x01, 0x05, 0xBE,
    0xEC, 0x25, 0x8E, 0x3E, 0x98, 0xEB, 0x9A, 0x3E, 0x25, 0xFF, 0x9B, 0xBE,
    0x07, 0x85, 0xBC, 0x3D, 0x7A, 0x6A, 0xEB, 0x3D, 0x1D, 0x56, 0xBC, 0xBE,
    0x92, 0x9D, 0x77, 0x3D, 0x7F, 0xA9, 0x98, 0x3E, 0x20, 0x37, 0x91, 0xBE,
    0xB2, 0xFC, 0xCC, 0xBD, 0xDE, 0xA0, 0xF6, 0x3C, 0x09, 0xB5, 0x1F, 0xBE,
    0x9B, 0xCC, 0xA9, 0x3C, 0x10, 0x9A, 0x90, 0xBE, 0x0F, 0x9D, 0x8B, 0x3E,
    0x0A, 0x55, 0x4E, 0xBE, 0x1E, 0xA1, 0x5C, 0xBD, 0x9A, 0xF1, 0xA1, 0x3E,
    0x84, 0x64, 0x7C, 0xBE, 0x20, 0x91, 0x07, 0x3C, 0x59, 0xD1, 0xB7, 0xBE,
    0xD7, 0x7E, 0x05, 0xBE, 0xE2, 0xD0, 0xE6, 0xBB, 0x90, 0x5F, 0xA6, 0xBE,
    0x58, 0x6A, 0x74, 0xBE, 0x9E, 0x3A, 0x44, 0xBC, 0x52, 0x6D, 0x85, 0x3E,
    0x1E, 0x92, 0xCA, 0xBE, 0xBA, 0xF1, 0x54, 0x3E, 0x6F, 0x80, 0x92, 0x3E,
    0x9D, 0x9F, 0x8F, 0x3E, 0x51, 0x69, 0x8C, 0x3E, 0xE3, 0x20, 0x7E, 0x3E,
    0x49, 0xBE, 0x92, 0x3D, 0xCE, 0x30, 0x55, 0x3E, 0x56, 0x86, 0x83, 0x3E,
    0xBD, 0x93, 0x43, 0xBE, 0xC8, 0xE9, 0x50, 0xBC, 0x3C, 0x03, 0x5D, 0xBE,
    0x56, 0x3F, 0x2A, 0x3E, 0xF1, 0x5E, 0x2F, 0x3E, 0x35, 0x30, 0x62, 0xBE,
    0x3A, 0xAE, 0x27, 0x3D, 0xCA, 0x86, 0x5E, 0xBE, 0xDC, 0x2E, 0x09, 0x3E,
    0xE7, 0xA8, 0xD7, 0x3E, 0xAB, 0x1E, 0x44, 0x3E, 0x1E, 0x01, 0x06, 0x3E,
    0xB1, 0x2A, 0x92, 0xBC, 0x38, 0x69, 0x4B, 0xBE, 0x5B, 0x39, 0x66, 0x3C,
    0x64, 0x7D, 0x9D, 0x3E, 0xC5, 0x59, 0x9A, 0xBE, 0xDD, 0x1E, 0x2F, 0x3E,
    0xE1, 0xC1, 0xF2, 0x3D, 0xC5, 0x7E, 0xF5, 0x3D, 0x0E, 0x7F, 0xCB, 0xBC,
    0xB8, 0x3D, 0x48, 0xBD, 0x60, 0x56, 0xED, 0x3D, 0xD5, 0xA9, 0x49, 0xBE,
    0xA6, 0x9D, 0x9F, 0x3E, 0xD9, 0x7C, 0x98, 0x3D, 0x34, 0x8C, 0x26, 0x3E,
    0xFC, 0xBD, 0x92, 0xBE, 0x20, 0x83, 0xBC, 0x3E, 0x4B, 0x08, 0x49, 0xBD,
    0xB3, 0xCF, 0x98, 0xBE, 0xAB, 0x76, 0x2F, 0x3E, 0x06, 0x2F, 0x06, 0x3C,
    0x00, 0xD1, 0x39, 0xBE, 0x63, 0x02, 0x58, 0xBD, 0x05, 0x9F, 0x91, 0x3E,
    0x7C, 0xE8, 0x30, 0x3D, 0x5D, 0x20, 0x37, 0x3D, 0x94, 0x88, 0xD6, 0x3D,
    0x1D, 0x1C, 0xE2, 0x3D, 0x52, 0x52, 0x43, 0xBE, 0x43, 0x1F, 0xB9, 0x3D,
    0x09, 0xBA, 0x67, 0xBC, 0xC7, 0x3C, 0xAA, 0xBD, 0x5F, 0x26, 0x55, 0xBE,
    0xA1, 0xA9, 0x7F, 0xBE, 0x93, 0xA1, 0xA4, 0x3E, 0x90, 0x0A, 0x19, 0xBE,
    0x2C, 0xD1, 0xA7, 0xBE, 0x8A, 0x3A, 0x8E, 0xBE, 0x03, 0xF6, 0x34, 0xBE,
    0x15, 0xE0, 0xA1, 0x3E, 0xB1, 0x91, 0x72, 0xBE, 0x94, 0x0F, 0x66, 0x3E,
    0x5D, 0xA6, 0x45, 0xBD, 0xDC, 0x99, 0x62, 0x3D, 0x3D, 0x24, 0xC5, 0x3D,
    0x7F, 0x22, 0x19, 0xBE, 0x66, 0x72, 0x96, 0xBE, 0xB1, 0x24, 0x11, 0x3E,
    0xE9, 0x23, 0x93, 0x3C, 0xE2, 0xF7, 0x83, 0x3C, 0x48, 0x23, 0x51, 0xBE,
    0x61, 0x94, 0xAE, 0xBD, 0x32, 0x7C, 0xC6, 0x3D, 0xF8, 0x14, 0x67, 0x3E,
    0x9D, 0x48, 0xD9, 0x3E, 0x4D, 0x0D, 0xF3, 0x3D, 0xB1, 0x9C, 0xFC, 0x3C,
    0x9B, 0x3C, 0x3F, 0xBE, 0x65, 0x36, 0xE8, 0xBD, 0x6E, 0x31, 0x09, 0x3C,
    0xBF, 0x93, 0xB1, 0xBD, 0xC9, 0xD1, 0x96, 0xBE, 0x1A, 0x51, 0x6A, 0xBE,
    0x02, 0xEB, 0x98, 0xBE, 0x10, 0x75, 0x85, 0x3E, 0x8C, 0xCB, 0x46, 0x3E,
    0x6A, 0x59, 0x93, 0x3E, 0x2D, 0xBD, 0x89, 0xBD, 0x16, 0xA6, 0x63, 0xBD,
    0x7B, 0x84, 0xB5, 0x3E, 0x03, 0xD7, 0x3A, 0xBE, 0x8E, 0xE8, 0x99, 0xBE,
    0x12, 0xFA, 0x5F, 0xBD, 0xDB, 0x8F, 0x38, 0x3E, 0xB0, 0x9C, 0xC6, 0x3E,
    0x90, 0xC8, 0xAD, 0x3E, 0x45, 0xE9, 0x07, 0xBE, 0x17, 0x81, 0xC5, 0xBC,
    0x24, 0xFD, 0x92, 0x3E, 0x64, 0x8C, 0xA3, 0x3E, 0x58, 0x33, 0xD4, 0xBD,
    0xEA, 0x74, 0x24, 0x3E, 0x82, 0x1A, 0xBC, 0xBD, 0xD3, 0x94, 0x3F, 0xBE,
    0x6F, 0x35, 0x6F, 0x3E, 0x24, 0xD1, 0x0F, 0xBE, 0xC0, 0x7D, 0xC6, 0x3D,
    0xB9, 0x65, 0xA4, 0xBE, 0x73, 0x1B, 0xAB, 0xBD, 0x26, 0xF7, 0xF5, 0x3D,
    0x1B, 0x35, 0x5D, 0xBE, 0xB3, 0x80, 0xA7, 0x3D, 0x1F, 0xB3, 0x9A, 0x3D,
    0xCF, 0x56, 0x65, 0x3E, 0x0A, 0xB6, 0x2B, 0x3C, 0x26, 0x59, 0x23, 0x3E,
    0xC7, 0x7C, 0xD8, 0xBD, 0x5C, 0xD1, 0xA2, 0xBE, 0x7A, 0x4C, 0x9D, 0x3E,
    0x95, 0xAE, 0x68, 0xBE, 0xC5, 0x19, 0x93, 0xBE, 0x11, 0xA1, 0xD9, 0x3D,
    0xEC, 0x30, 0x07, 0xBE, 0xCE, 0x78, 0x06, 0x3E, 0xAA, 0xBC, 0x65, 0xBE,
    0x1A, 0xE6, 0x43, 0xBE, 0x2C, 0x63, 0x67, 0xBE, 0x19, 0x4C, 0x7F, 0xBB,
    0x8E, 0xE3, 0x85, 0x3E, 0xD0, 0x4D, 0x62, 0x3E, 0xA2, 0x87, 0x3B, 0xBD,
    0x53, 0xB1, 0x66, 0xBD, 0x56, 0xB6, 0x87, 0xBE, 0x9B, 0x0D, 0xC9, 0xBE,
    0x23, 0x51, 0x39, 0x3E, 0x8A, 0xC2, 0x06, 0x3D, 0xB7, 0x19, 0x72, 0xBB,
    0xD7, 0xF7, 0xB4, 0x3E, 0x30, 0x5F, 0xBE, 0xBE, 0xE1, 0x9D, 0x7B, 0x3C,
    0x4B, 0xA4, 0xDD, 0x3D, 0x9F, 0x0E, 0x8D, 0x3C, 0x0F, 0xDC, 0x35, 0xBE,
    0x42, 0x61, 0x2C, 0x3E, 0xE7, 0x06, 0x8F, 0x3E, 0xE4, 0x19, 0x70, 0x3E,
    0xC5, 0x9D, 0xC1, 0xBE, 0xAD, 0xFF, 0x96, 0xBD, 0x5B, 0xC7, 0x99, 0x3E,
    0xA4, 0xEA, 0x4E, 0x3E, 0xB7, 0x76, 0xBD, 0xBE, 0xFC, 0x3D, 0x85, 0x3C,
    0x98, 0x73, 0x43, 0xBE, 0x31, 0x00, 0xC2, 0x3E, 0x95, 0x0E, 0xB2, 0xBE,
    0x9F, 0xEC, 0xA7, 0xBC, 0x45, 0xCE, 0x8C, 0xBD, 0xCE, 0x9E, 0x63, 0xBE,
    0x79, 0x51, 0xAB, 0x3E, 0x78, 0x2B, 0x99, 0xBD, 0xDF, 0xF6, 0x81, 0xBE,
    0xC2, 0xAB, 0x89, 0xBE, 0xB3, 0xFF, 0x22, 0x3D, 0x7D, 0xE2, 0xF8, 0x3D,
    0x09, 0xBB, 0x13, 0xBE, 0x7E, 0x0A, 0x6E, 0x3D, 0x9B, 0x3F, 0x85, 0x3E,
    0xBF, 0xE0, 0x57, 0xBE, 0x35, 0xA2, 0x44, 0x3D, 0x97, 0x08, 0x7D, 0xBE,
    0xE9, 0xFE, 0x5D, 0x3E, 0x5D, 0x4A, 0x02, 0xBE, 0x36, 0x5E, 0x88, 0xBE,
    0x45, 0xBA, 0xC2, 0x3E, 0x74, 0xC4, 0x8E, 0xBD, 0x9A, 0x1D, 0x76, 0x3E,
    0xDD, 0xE8, 0x73, 0xBE, 0xA1, 0x4A, 0x6B, 0x3E, 0x36, 0xA8, 0x09, 0x3E,
    0x72, 0x39, 0x8A, 0xBE, 0xB5, 0x26, 0x59, 0xBE, 0x76, 0xFE, 0xFA, 0xBB,
    0x7F, 0x0F, 0x39, 0xBE, 0x9D, 0x5D, 0xCF, 0x3E, 0xD5, 0x7B, 0x83, 0xBE,
    0x21, 0x06, 0xF1, 0xBC, 0xA3, 0x55, 0xC4, 0x3E, 0x6C, 0x2D, 0x78, 0x3E,
    0x1A, 0x26, 0xB1, 0xBE, 0xB6, 0xCC, 0x98, 0xBE, 0x3F, 0xF6, 0xB0, 0x3E,
    0xDD, 0x96, 0x8C, 0xBE, 0xD6, 0xF6, 0xBF, 0xBE, 0x82, 0xCA, 0xD8, 0x3D,
    0x8C, 0x84, 0xDA, 0x3E, 0x7E, 0xA2, 0xAA, 0x3E, 0x18, 0xB1, 0x97, 0x3E,
    0x58, 0x29, 0x79, 0x3E, 0xBD, 0x9C, 0x8A, 0x3D, 0x5F, 0x6C, 0x3B, 0xBE,
    0xB2, 0xA6, 0xCD, 0x3E, 0xBF, 0x1F, 0x57, 0x3E, 0x46, 0x2A, 0xC3, 0x3B,
    0x79, 0x2E, 0x0B, 0xBE, 0x49, 0x2D, 0x37, 0x3E, 0xF0, 0x2F, 0xDA, 0xBC,
    0x40, 0x87, 0xC1, 0x3E, 0x8A, 0x53, 0x98, 0x3E, 0xDC, 0xF3, 0x67, 0x3E,
    0x01, 0x9F, 0x5A, 0x3D, 0xC7, 0x9E, 0xD5, 0xBA, 0xC9, 0x21, 0x99, 0x3D,
    0x3B, 0x05, 0x54, 0xBE, 0x9C, 0x7F, 0x91, 0xBE, 0x93, 0x34, 0x92, 0xBE,
    0x4E, 0x3A, 0x90, 0x3E, 0x52, 0x61, 0xC7, 0xBD, 0x58, 0x1B, 0x82, 0x3E,
    0xCD, 0x1A, 0xBD, 0x3E, 0xDA, 0x0C, 0x3A, 0x3D, 0x2A, 0xB7, 0xB2, 0xBD,
    0x4B, 0x83, 0x55, 0x3D, 0x53, 0x07, 0x26, 0x3C, 0x2F, 0x5D, 0x9B, 0xBE,
    0x12, 0xCB, 0x2E, 0xBE, 0x5E, 0x46, 0x58, 0x3E, 0xDA, 0xDE, 0x54, 0xBE,
    0xFE, 0xEB, 0x5F, 0xBB, 0x55, 0x1A, 0xCB, 0xBC, 0xB0, 0x56, 0x8D, 0xBE,
    0x1F, 0x3A, 0x12, 0xBD, 0xA9, 0xA0, 0x96, 0xBE, 0xE7, 0x63, 0x89, 0x3E,
    0xD6, 0xB1, 0x6E, 0xBE, 0xE1, 0x8E, 0x47, 0xBE, 0x5E, 0x66, 0xBC, 0x3E,
    0x2F, 0x35, 0x08, 0x3E, 0xB3, 0xF0, 0x3C, 0xBE, 0x6B, 0xA2, 0x0E, 0xBC,
    0xFD, 0xA1, 0xC2, 0x3E, 0x1F, 0x4C, 0x96, 0xBD, 0xB2, 0x0B, 0xC4, 0x3E,
    0x04, 0x08, 0x9F, 0xBE, 0xBB, 0xA6, 0x47, 0xBE, 0xCB, 0x8A, 0xBD, 0x3D,
    0x07, 0xAF, 0xBA, 0xBE, 0x67, 0x19, 0xD9, 0xBD, 0x73, 0x9A, 0xB7, 0xBD,
    0xC4, 0x6F, 0x83, 0xBE, 0xA4, 0x95, 0x3C, 0xBE, 0xB4, 0x3A, 0x72, 0x3E,
    0x90, 0xF4, 0xB2, 0xBE, 0xA8, 0x35, 0x47, 0x3E, 0x81, 0xC6, 0x42, 0xBE,
    0x22, 0x26, 0x25, 0x3E, 0x9C, 0x92, 0xC3, 0x3D, 0x4A, 0xDF, 0x76, 0x3E,
    0x1F, 0x2E, 0x95, 0x3E, 0xDC, 0x1A, 0xBA, 0xBD, 0xAF, 0x1E, 0xBA, 0x3E,
    0x4C, 0xCA, 0xBE, 0x3D, 0x97, 0x53, 0x93, 0xBE, 0x5F, 0xC5, 0x6C, 0xBE,
    0xB6, 0x97, 0x6B, 0x3E, 0xB2, 0x49, 0x3E, 0x3E, 0x3E, 0xD2, 0x44, 0xBE,
    0xAB, 0xA8, 0x45, 0xBE, 0xFB, 0x03, 0x03, 0x3E, 0x30, 0x30, 0x83, 0xBE,
    0xB0, 0xDC, 0x96, 0x3E, 0xBD, 0x18, 0x40, 0xBE, 0x20, 0xBF, 0x71, 0x3E,
    0xD5, 0x77, 0x3F, 0xBE, 0x3A, 0xF2, 0x8A, 0xBC, 0xEB, 0x13, 0xFE, 0x3D,
    0x21, 0x43, 0xB9, 0x3E, 0x04, 0xC1, 0x3D, 0xBE, 0xED, 0xC0, 0x3B, 0xBE,
    0x47, 0x05, 0xFF, 0xBD, 0x76, 0x1C, 0xAA, 0xBE, 0xEB, 0x69, 0x38, 0x3E,
    0x16, 0xFF, 0xFF, 0xFF, 0x04, 0x00, 0x00, 0x00, 0x40, 0x00, 0x00, 0x00,
    0x8E, 0x20, 0xC8, 0x3E, 0xCB, 0x9B, 0xF7, 0x3E, 0x75, 0xE5, 0x03, 0x3E,
    0xDE, 0x54, 0xB4, 0xBE, 0x51, 0x2B, 0x93, 0xBE, 0x4F, 0x4B, 0xF9, 0x3E,
    0x4D, 0xD5, 0x19, 0x3F, 0xAD, 0xEF, 0x68, 0xBD, 0x3E, 0x06, 0xD9, 0x3E,
    0x41, 0x55, 0xFB, 0x3E, 0xB0, 0x9F, 0xBC, 0xBE, 0xC4, 0x77, 0x92, 0x3E,
    0x49, 0x92, 0xAC, 0xBE, 0xAD, 0xEF, 0xF7, 0xBD, 0xB3, 0xA3, 0x6F, 0xBE,
    0x6D, 0xF6, 0xF7, 0xBE, 0x62, 0xFF, 0xFF, 0xFF, 0x04, 0x00, 0x00, 0x00,
    0x04, 0x00, 0x00, 0x00, 0x5C, 0xBB, 0x15, 0xBD, 0x72, 0xFF, 0xFF, 0xFF,
    0x04, 0x00, 0x00, 0x00, 0x80, 0x00, 0x00, 0x00, 0x02, 0x21, 0x2C, 0xBD,
    0x40, 0xA5, 0x00, 0x3D, 0x17, 0x8A, 0x74, 0xBD, 0xB9, 0x71, 0xD7, 0xBC,
    0x14, 0x67, 0x85, 0x3D, 0x83, 0x03, 0xD0, 0x3D, 0xF5, 0x9C, 0x78, 0x3D,
    0xEA, 0xE7, 0x22, 0x3E, 0x09, 0xB8, 0x09, 0xBE, 0x73, 0xA2, 0xC8, 0x3D,
    0x42, 0x4F, 0x98, 0x3D, 0xCC, 0x64, 0x10, 0x3E, 0x63, 0x52, 0x74, 0x3D,
    0x0B, 0x55, 0x6B, 0x3D, 0xD4, 0x97, 0xF2, 0xBC, 0xE7, 0xFE, 0x70, 0xBD,
    0xD3, 0x9B, 0xC3, 0xBD, 0x2F, 0x96, 0x2D, 0x3E, 0xC3, 0xC5, 0x3C, 0xBC,
    0x9A, 0xE3, 0xE9, 0xBD, 0xBF, 0xEA, 0x14, 0x3E, 0xB1, 0x1E, 0xF0, 0x3D,
    0xC8, 0xA7, 0x45, 0xBC, 0x85, 0x11, 0x33, 0x3D, 0xA9, 0xF1, 0x97, 0xBD,
    0xA7, 0x1D, 0x9C, 0xBD, 0x9B, 0x90, 0xFF, 0x3D, 0xBC, 0xE1, 0xA3, 0x3C,
    0x7F, 0x81, 0x63, 0x3D, 0xFB, 0x21, 0x02, 0xBE, 0x01, 0xB5, 0x84, 0xBD,
    0x54, 0xD2, 0x03, 0xBE, 0x00, 0x00, 0x06, 0x00, 0x08, 0x00, 0x04, 0x00,
    0x06, 0x00, 0x00, 0x00, 0x04, 0x00, 0x00, 0x00, 0x40, 0x00, 0x00, 0x00,
    0xE1, 0x61, 0x2F, 0xBD, 0xAF, 0x02, 0x8E, 0x3D, 0x8F, 0xD4, 0xD3, 0x3D,
    0xD3, 0x66, 0xAC, 0x3D, 0xD6, 0xDB, 0x2D, 0x3D, 0x93, 0xF2, 0x00, 0x3D,
    0xEF, 0xF0, 0x0F, 0x3E, 0x87, 0xAF, 0xB8, 0xBD, 0x74, 0xCF, 0x09, 0xBD,
    0x6A, 0x7B, 0x3E, 0x3D, 0xEC, 0x7B, 0xAA, 0x3D, 0x59, 0xDD, 0x72, 0xBD,
    0x90, 0xA9, 0x40, 0x3E, 0xA4, 0xA2, 0x31, 0xBB, 0x9F, 0x3C, 0x07, 0x3D,
    0x39, 0x34, 0x14, 0x3E, 0x94, 0xF8, 0xFF, 0xFF, 0x98, 0xF8, 0xFF, 0xFF,
    0x0F, 0x00, 0x00, 0x00, 0x4D, 0x4C, 0x49, 0x52, 0x20, 0x43, 0x6F, 0x6E,
    0x76, 0x65, 0x72, 0x74, 0x65, 0x64, 0x2E, 0x00, 0x01, 0x00, 0x00, 0x00,
    0x14, 0x00, 0x00, 0x00, 0x00, 0x00, 0x0E, 0x00, 0x18, 0x00, 0x14, 0x00,
    0x10, 0x00, 0x0C, 0x00, 0x08, 0x00, 0x04, 0x00, 0x0E, 0x00, 0x00, 0x00,
    0x14, 0x00, 0x00, 0x00, 0x1C, 0x00, 0x00, 0x00, 0x98, 0x01, 0x00, 0x00,
    0x9C, 0x01, 0x00, 0x00, 0xA0, 0x01, 0x00, 0x00, 0x04, 0x00, 0x00, 0x00,
    0x6D, 0x61, 0x69, 0x6E, 0x00, 0x00, 0x00, 0x00, 0x06, 0x00, 0x00, 0x00,
    0x50, 0x01, 0x00, 0x00, 0x0C, 0x01, 0x00, 0x00, 0xB8, 0x00, 0x00, 0x00,
    0x6C, 0x00, 0x00, 0x00, 0x34, 0x00, 0x00, 0x00, 0x10, 0x00, 0x00, 0x00,
    0x00, 0x00, 0x0A, 0x00, 0x10, 0x00, 0x0C, 0x00, 0x08, 0x00, 0x04, 0x00,
    0x0A, 0x00, 0x00, 0x00, 0x0C, 0x00, 0x00, 0x00, 0x10, 0x00, 0x00, 0x00,
    0x03, 0x00, 0x00, 0x00, 0x01, 0x00, 0x00, 0x00, 0x0E, 0x00, 0x00, 0x00,
    0x01, 0x00, 0x00, 0x00, 0x0D, 0x00, 0x00, 0x00, 0x42, 0xFF, 0xFF, 0xFF,
    0x14, 0x00, 0x00, 0x00, 0x00, 0x00, 0x00, 0x08, 0x10, 0x00, 0x00, 0x00,
    0x14, 0x00, 0x00, 0x00, 0x02, 0x00, 0x00, 0x00, 0x4C, 0xF9, 0xFF, 0xFF,
    0x01, 0x00, 0x00, 0x00, 0x0D, 0x00, 0x00, 0x00, 0x03, 0x00, 0x00, 0x00,
    0x0C, 0x00, 0x00, 0x00, 0x04, 0x00, 0x00, 0x00, 0x03, 0x00, 0x00, 0x00,
    0x76, 0xFF, 0xFF, 0xFF, 0x14, 0x00, 0x00, 0x00, 0x00, 0x00, 0x00, 0x08,
    0x14, 0x00, 0x00, 0x00, 0x18, 0x00, 0x00, 0x00, 0x02, 0x00, 0x00, 0x00,
    0xB6, 0xFF, 0xFF, 0xFF, 0x00, 0x00, 0x00, 0x01, 0x01, 0x00, 0x00, 0x00,
    0x0C, 0x00, 0x00, 0x00, 0x03, 0x00, 0x00, 0x00, 0x0B, 0x00, 0x00, 0x00,
    0x05, 0x00, 0x00, 0x00, 0x01, 0x00, 0x00, 0x00, 0x00, 0x00, 0x0E, 0x00,
    0x1A, 0x00, 0x14, 0x00, 0x10, 0x00, 0x0C, 0x00, 0x0B, 0x00, 0x04, 0x00,
    0x0E, 0x00, 0x00, 0x00, 0x1C, 0x00, 0x00, 0x00, 0x00, 0x00, 0x00, 0x08,
    0x1C, 0x00, 0x00, 0x00, 0x20, 0x00, 0x00, 0x00, 0x02, 0x00, 0x00, 0x00,
    0x00, 0x00, 0x06, 0x00, 0x08, 0x00, 0x07, 0x00, 0x06, 0x00, 0x00, 0x00,
    0x00, 0x00, 0x00, 0x01, 0x01, 0x00, 0x00, 0x00, 0x0B, 0x00, 0x00, 0x00,
    0x03, 0x00, 0x00, 0x00, 0x0A, 0x00, 0x00, 0x00, 0x06, 0x00, 0x00, 0x00,
    0x02, 0x00, 0x00, 0x00, 0x00, 0x00, 0x0E, 0x00, 0x18, 0x00, 0x14, 0x00,
    0x10, 0x00, 0x0C, 0x00, 0x0B, 0x00, 0x04, 0x00, 0x0E, 0x00, 0x00, 0x00,
    0x14, 0x00, 0x00, 0x00, 0x00, 0x00, 0x00, 0x15, 0x10, 0x00, 0x00, 0x00,
    0x14, 0x00, 0x00, 0x00, 0x01, 0x00, 0x00, 0x00, 0x18, 0xFA, 0xFF, 0xFF,
    0x01, 0x00, 0x00, 0x00, 0x0A, 0x00, 0x00, 0x00, 0x02, 0x00, 0x00, 0x00,
    0x09, 0x00, 0x00, 0x00, 0x07, 0x00, 0x00, 0x00, 0x00, 0x00, 0x0E, 0x00,
    0x14, 0x00, 0x00, 0x00, 0x10, 0x00, 0x0C, 0x00, 0x0B, 0x00, 0x04, 0x00,
    0x0E, 0x00, 0x00, 0x00, 0x10, 0x00, 0x00, 0x00, 0x00, 0x00, 0x00, 0x1C,
    0x0C, 0x00, 0x00, 0x00, 0x10, 0x00, 0x00, 0x00, 0x54, 0xFA, 0xFF, 0xFF,
    0x01, 0x00, 0x00, 0x00, 0x09, 0x00, 0x00, 0x00, 0x02, 0x00, 0x00, 0x00,
    0x00, 0x00, 0x00, 0x00, 0x08, 0x00, 0x00, 0x00, 0x01, 0x00, 0x00, 0x00,
    0x0E, 0x00, 0x00, 0x00, 0x01, 0x00, 0x00, 0x00, 0x00, 0x00, 0x00, 0x00,
    0x0F, 0x00, 0x00, 0x00, 0x68, 0x05, 0x00, 0x00, 0xE8, 0x04, 0x00, 0x00,
    0x84, 0x04, 0x00, 0x00, 0x3C, 0x04, 0x00, 0x00, 0xEC, 0x03, 0x00, 0x00,
    0x9C, 0x03, 0x00, 0x00, 0x50, 0x03, 0x00, 0x00, 0xD4, 0x02, 0x00, 0x00,
    0x9C, 0x02, 0x00, 0x00, 0x48, 0x02, 0x00, 0x00, 0xCC, 0x01, 0x00, 0x00,
    0x48, 0x01, 0x00, 0x00, 0xBC, 0x00, 0x00, 0x00, 0x50, 0x00, 0x00, 0x00,
    0x04, 0x00, 0x00, 0x00, 0xEA, 0xFA, 0xFF, 0xFF, 0x00, 0x00, 0x00, 0x01,
    0x10, 0x00, 0x00, 0x00, 0x10, 0x00, 0x00, 0x00, 0x0F, 0x00, 0x00, 0x00,
    0x28, 0x00, 0x00, 0x00, 0xD4, 0xFA, 0xFF, 0xFF, 0x1B, 0x00, 0x00, 0x00,
    0x53, 0x74, 0x61, 0x74, 0x65, 0x66, 0x75, 0x6C, 0x50, 0x61, 0x72, 0x74,
    0x69, 0x74, 0x69, 0x6F, 0x6E, 0x65, 0x64, 0x43, 0x61, 0x6C, 0x6C, 0x5F,
    0x31, 0x3A, 0x30, 0x00, 0x02, 0x00, 0x00, 0x00, 0x20, 0x00, 0x00, 0x00,
    0x01, 0x00, 0x00, 0x00, 0x32, 0xFB, 0xFF, 0xFF, 0x00, 0x00, 0x00, 0x01,
    0x10, 0x00, 0x00, 0x00, 0x10, 0x00, 0x00, 0x00, 0x0E, 0x00, 0x00, 0x00,
    0x48, 0x00, 0x00, 0x00, 0x1C, 0xFB, 0xFF, 0xFF, 0x38, 0x00, 0x00, 0x00,
    0x73, 0x65, 0x71, 0x75, 0x65, 0x6E, 0x74, 0x69, 0x61, 0x6C, 0x5F, 0x31,
    0x2F, 0x64, 0x65, 0x6E, 0x73, 0x65, 0x5F, 0x32, 0x5F, 0x31, 0x2F, 0x4D,
    0x61, 0x74, 0x4D, 0x75, 0x6C, 0x3B, 0x73, 0x65, 0x71, 0x75, 0x65, 0x6E,
    0x74, 0x69, 0x61, 0x6C, 0x5F, 0x31, 0x2F, 0x64, 0x65, 0x6E, 0x73, 0x65,
    0x5F, 0x32, 0x5F, 0x31, 0x2F, 0x41, 0x64, 0x64, 0x00, 0x00, 0x00, 0x00,
    0x02, 0x00, 0x00, 0x00, 0x20, 0x00, 0x00, 0x00, 0x01, 0x00, 0x00, 0x00,
    0x9A, 0xFB, 0xFF, 0xFF, 0x00, 0x00, 0x00, 0x01, 0x10, 0x00, 0x00, 0x00,
    0x10, 0x00, 0x00, 0x00, 0x0D, 0x00, 0x00, 0x00, 0x68, 0x00, 0x00, 0x00,
    0x84, 0xFB, 0xFF, 0xFF, 0x58, 0x00, 0x00, 0x00, 0x73, 0x65, 0x71, 0x75,
    0x65, 0x6E, 0x74, 0x69, 0x61, 0x6C, 0x5F, 0x31, 0x2F, 0x64, 0x65, 0x6E,
    0x73, 0x65, 0x5F, 0x31, 0x5F, 0x32, 0x2F, 0x4D, 0x61, 0x74, 0x4D, 0x75,
    0x6C, 0x3B, 0x73, 0x65, 0x71, 0x75, 0x65, 0x6E, 0x74, 0x69, 0x61, 0x6C,
    0x5F, 0x31, 0x2F, 0x64, 0x65, 0x6E, 0x73, 0x65, 0x5F, 0x31, 0x5F, 0x32,
    0x2F, 0x52, 0x65, 0x6C, 0x75, 0x3B, 0x73, 0x65, 0x71, 0x75, 0x65, 0x6E,
    0x74, 0x69, 0x61, 0x6C, 0x5F, 0x31, 0x2F, 0x64, 0x65, 0x6E, 0x73, 0x65,
    0x5F, 0x31, 0x5F, 0x32, 0x2F, 0x42, 0x69, 0x61, 0x73, 0x41, 0x64, 0x64,
    0x00, 0x00, 0x00, 0x00, 0x02, 0x00, 0x00, 0x00, 0x20, 0x00, 0x00, 0x00,
    0x10, 0x00, 0x00, 0x00, 0x22, 0xFC, 0xFF, 0xFF, 0x00, 0x00, 0x00, 0x01,
    0x10, 0x00, 0x00, 0x00, 0x10, 0x00, 0x00, 0x00, 0x0C, 0x00, 0x00, 0x00,
    0x60, 0x00, 0x00, 0x00, 0x0C, 0xFC, 0xFF, 0xFF, 0x52, 0x00, 0x00, 0x00,
    0x73, 0x65, 0x71, 0x75, 0x65, 0x6E, 0x74, 0x69, 0x61, 0x6C, 0x5F, 0x31,
    0x2F, 0x64, 0x65, 0x6E, 0x73, 0x65, 0x5F, 0x31, 0x2F, 0x4D, 0x61, 0x74,
    0x4D, 0x75, 0x6C, 0x3B, 0x73, 0x65, 0x71, 0x75, 0x65, 0x6E, 0x74, 0x69,
    0x61, 0x6C, 0x5F, 0x31, 0x2F, 0x64, 0x65, 0x6E, 0x73, 0x65, 0x5F, 0x31,
    0x2F, 0x52, 0x65, 0x6C, 0x75, 0x3B, 0x73, 0x65, 0x71, 0x75, 0x65, 0x6E,
    0x74, 0x69, 0x61, 0x6C, 0x5F, 0x31, 0x2F, 0x64, 0x65, 0x6E, 0x73, 0x65,
    0x5F, 0x31, 0x2F, 0x42, 0x69, 0x61, 0x73, 0x41, 0x64, 0x64, 0x00, 0x00,
    0x02, 0x00, 0x00, 0x00, 0x20, 0x00, 0x00, 0x00, 0x20, 0x00, 0x00, 0x00,
    0xA2, 0xFC, 0xFF, 0xFF, 0x00, 0x00, 0x00, 0x01, 0x10, 0x00, 0x00, 0x00,
    0x10, 0x00, 0x00, 0x00, 0x0B, 0x00, 0x00, 0x00, 0x58, 0x00, 0x00, 0x00,
    0x8C, 0xFC, 0xFF, 0xFF, 0x4A, 0x00, 0x00, 0x00, 0x73, 0x65, 0x71, 0x75,
    0x65, 0x6E, 0x74, 0x69, 0x61, 0x6C, 0x5F, 0x31, 0x2F, 0x6E, 0x6F, 0x72,
    0x6D, 0x61, 0x6C, 0x69, 0x7A, 0x61, 0x74, 0x69, 0x6F, 0x6E, 0x5F, 0x31,
    0x2F, 0x74, 0x72, 0x75, 0x65, 0x64, 0x69, 0x76, 0x3B, 0x73, 0x65, 0x71,
    0x75, 0x65, 0x6E, 0x74, 0x69, 0x61, 0x6C, 0x5F, 0x31, 0x2F, 0x6E, 0x6F,
    0x72, 0x6D, 0x61, 0x6C, 0x69, 0x7A, 0x61, 0x74, 0x69, 0x6F, 0x6E, 0x5F,
    0x31, 0x2F, 0x4D, 0x61, 0x78, 0x69, 0x6D, 0x75, 0x6D, 0x31, 0x00, 0x00,
    0x02, 0x00, 0x00, 0x00, 0x20, 0x00, 0x00, 0x00, 0x1C, 0x00, 0x00, 0x00,
    0x1A, 0xFD, 0xFF, 0xFF, 0x00, 0x00, 0x00, 0x01, 0x10, 0x00, 0x00, 0x00,
    0x10, 0x00, 0x00, 0x00, 0x0A, 0x00, 0x00, 0x00, 0x30, 0x00, 0x00, 0x00,
    0x04, 0xFD, 0xFF, 0xFF, 0x20, 0x00, 0x00, 0x00, 0x73, 0x65, 0x71, 0x75,
    0x65, 0x6E, 0x74, 0x69, 0x61, 0x6C, 0x5F, 0x31, 0x2F, 0x6E, 0x6F, 0x72,
    0x6D, 0x61, 0x6C, 0x69, 0x7A, 0x61, 0x74, 0x69, 0x6F, 0x6E, 0x5F, 0x31,
    0x2F, 0x53, 0x75, 0x62, 0x00, 0x00, 0x00, 0x00, 0x02, 0x00, 0x00, 0x00,
    0x20, 0x00, 0x00, 0x00, 0x1C, 0x00, 0x00, 0x00, 0x6A, 0xFD, 0xFF, 0xFF,
    0x00, 0x00, 0x00, 0x01, 0x10, 0x00, 0x00, 0x00, 0x10, 0x00, 0x00, 0x00,
    0x09, 0x00, 0x00, 0x00, 0x14, 0x00, 0x00, 0x00, 0x54, 0xFD, 0xFF, 0xFF,
    0x07, 0x00, 0x00, 0x00, 0x43, 0x6F, 0x6E, 0x73, 0x74, 0x5F, 0x31, 0x00,
    0x02, 0x00, 0x00, 0x00, 0x01, 0x00, 0x00, 0x00, 0x1C, 0x00, 0x00, 0x00,
    0x9E, 0xFD, 0xFF, 0xFF, 0x00, 0x00, 0x00, 0x01, 0x10, 0x00, 0x00, 0x00,
    0x10, 0x00, 0x00, 0x00, 0x08, 0x00, 0x00, 0x00, 0x58, 0x00, 0x00, 0x00,
    0x88, 0xFD, 0xFF, 0xFF, 0x49, 0x00, 0x00, 0x00, 0x73, 0x65, 0x71, 0x75,
    0x65, 0x6E, 0x74, 0x69, 0x61, 0x6C, 0x5F, 0x31, 0x2F, 0x6E, 0x6F, 0x72,
    0x6D, 0x61, 0x6C, 0x69, 0x7A, 0x61, 0x74, 0x69, 0x6F, 0x6E, 0x5F, 0x31,
    0x2F, 0x74, 0x72, 0x75, 0x65, 0x64, 0x69, 0x76, 0x3B, 0x73, 0x65, 0x71,
    0x75, 0x65, 0x6E, 0x74, 0x69, 0x61, 0x6C, 0x5F, 0x31, 0x2F, 0x6E, 0x6F,
    0x72, 0x6D, 0x61, 0x6C, 0x69, 0x7A, 0x61, 0x74, 0x69, 0x6F, 0x6E, 0x5F,
    0x31, 0x2F, 0x4D, 0x61, 0x78, 0x69, 0x6D, 0x75, 0x6D, 0x00, 0x00, 0x00,
    0x02, 0x00, 0x00, 0x00, 0x01, 0x00, 0x00, 0x00, 0x1C, 0x00, 0x00, 0x00,
    0x16, 0xFE, 0xFF, 0xFF, 0x00, 0x00, 0x00, 0x01, 0x10, 0x00, 0x00, 0x00,
    0x10, 0x00, 0x00, 0x00, 0x07, 0x00, 0x00, 0x00, 0x28, 0x00, 0x00, 0x00,
    0x00, 0xFE, 0xFF, 0xFF, 0x1B, 0x00, 0x00, 0x00, 0x73, 0x65, 0x71, 0x75,
    0x65, 0x6E, 0x74, 0x69, 0x61, 0x6C, 0x5F, 0x31, 0x2F, 0x64, 0x65, 0x6E,
    0x73, 0x65, 0x5F, 0x31, 0x2F, 0x4D, 0x61, 0x74, 0x4D, 0x75, 0x6C, 0x00,
    0x02, 0x00, 0x00, 0x00, 0x20, 0x00, 0x00, 0x00, 0x1C, 0x00, 0x00, 0x00,
    0x5E, 0xFE, 0xFF, 0xFF, 0x00, 0x00, 0x00, 0x01, 0x10, 0x00, 0x00, 0x00,
    0x10, 0x00, 0x00, 0x00, 0x06, 0x00, 0x00, 0x00, 0x2C, 0x00, 0x00, 0x00,
    0x48, 0xFE, 0xFF, 0xFF, 0x1D, 0x00, 0x00, 0x00, 0x73, 0x65, 0x71, 0x75,
    0x65, 0x6E, 0x74, 0x69, 0x61, 0x6C, 0x5F, 0x31, 0x2F, 0x64, 0x65, 0x6E,
    0x73, 0x65, 0x5F, 0x31, 0x5F, 0x32, 0x2F, 0x4D, 0x61, 0x74, 0x4D, 0x75,
    0x6C, 0x00, 0x00, 0x00, 0x02, 0x00, 0x00, 0x00, 0x10, 0x00, 0x00, 0x00,
    0x20, 0x00, 0x00, 0x00, 0xAA, 0xFE, 0xFF, 0xFF, 0x00, 0x00, 0x00, 0x01,
    0x10, 0x00, 0x00, 0x00, 0x10, 0x00, 0x00, 0x00, 0x05, 0x00, 0x00, 0x00,
    0x2C, 0x00, 0x00, 0x00, 0x94, 0xFE, 0xFF, 0xFF, 0x1D, 0x00, 0x00, 0x00,
    0x73, 0x65, 0x71, 0x75, 0x65, 0x6E, 0x74, 0x69, 0x61, 0x6C, 0x5F, 0x31,
    0x2F, 0x64, 0x65, 0x6E, 0x73, 0x65, 0x5F, 0x32, 0x5F, 0x31, 0x2F, 0x4D,
    0x61, 0x74, 0x4D, 0x75, 0x6C, 0x00, 0x00, 0x00, 0x02, 0x00, 0x00, 0x00,
    0x01, 0x00, 0x00, 0x00, 0x10, 0x00, 0x00, 0x00, 0xF6, 0xFE, 0xFF, 0xFF,
    0x00, 0x00, 0x00, 0x01, 0x10, 0x00, 0x00, 0x00, 0x10, 0x00, 0x00, 0x00,
    0x04, 0x00, 0x00, 0x00, 0x28, 0x00, 0x00, 0x00, 0xE0, 0xFE, 0xFF, 0xFF,
    0x1A, 0x00, 0x00, 0x00, 0x73, 0x65, 0x71, 0x75, 0x65, 0x6E, 0x74, 0x69,
    0x61, 0x6C, 0x5F, 0x31, 0x2F, 0x64, 0x65, 0x6E, 0x73, 0x65, 0x5F, 0x32,
    0x5F, 0x31, 0x2F, 0x41, 0x64, 0x64, 0x00, 0x00, 0x01, 0x00, 0x00, 0x00,
    0x01, 0x00, 0x00, 0x00, 0x3A, 0xFF, 0xFF, 0xFF, 0x00, 0x00, 0x00, 0x01,
    0x10, 0x00, 0x00, 0x00, 0x10, 0x00, 0x00, 0x00, 0x03, 0x00, 0x00, 0x00,
    0x44, 0x00, 0x00, 0x00, 0x24, 0xFF, 0xFF, 0xFF, 0x36, 0x00, 0x00, 0x00,
    0x73, 0x65, 0x71, 0x75, 0x65, 0x6E, 0x74, 0x69, 0x61, 0x6C, 0x5F, 0x31,
    0x2F, 0x64, 0x65, 0x6E, 0x73, 0x65, 0x5F, 0x31, 0x2F, 0x52, 0x65, 0x6C,
    0x75, 0x3B, 0x73, 0x65, 0x71, 0x75, 0x65, 0x6E, 0x74, 0x69, 0x61, 0x6C,
    0x5F, 0x31, 0x2F, 0x64, 0x65, 0x6E, 0x73, 0x65, 0x5F, 0x31, 0x2F, 0x42,
    0x69, 0x61, 0x73, 0x41, 0x64, 0x64, 0x00, 0x00, 0x01, 0x00, 0x00, 0x00,
    0x20, 0x00, 0x00, 0x00, 0x9A, 0xFF, 0xFF, 0xFF, 0x00, 0x00, 0x00, 0x01,
    0x10, 0x00, 0x00, 0x00, 0x10, 0x00, 0x00, 0x00, 0x02, 0x00, 0x00, 0x00,
    0x48, 0x00, 0x00, 0x00, 0x84, 0xFF, 0xFF, 0xFF, 0x3A, 0x00, 0x00, 0x00,
    0x73, 0x65, 0x71, 0x75, 0x65, 0x6E, 0x74, 0x69, 0x61, 0x6C, 0x5F, 0x31,
    0x2F, 0x64, 0x65, 0x6E, 0x73, 0x65, 0x5F, 0x31, 0x5F, 0x32, 0x2F, 0x52,
    0x65, 0x6C, 0x75, 0x3B, 0x73, 0x65, 0x71, 0x75, 0x65, 0x6E, 0x74, 0x69,
    0x61, 0x6C, 0x5F, 0x31, 0x2F, 0x64, 0x65, 0x6E, 0x73, 0x65, 0x5F, 0x31,
    0x5F, 0x32, 0x2F, 0x42, 0x69, 0x61, 0x73, 0x41, 0x64, 0x64, 0x00, 0x00,
    0x01, 0x00, 0x00, 0x00, 0x10, 0x00, 0x00, 0x00, 0x00, 0x00, 0x16, 0x00,
    0x18, 0x00, 0x14, 0x00, 0x00, 0x00, 0x10, 0x00, 0x0C, 0x00, 0x08, 0x00,
    0x00, 0x00, 0x00, 0x00, 0x00, 0x00, 0x07, 0x00, 0x16, 0x00, 0x00, 0x00,
    0x00, 0x00, 0x00, 0x01, 0x14, 0x00, 0x00, 0x00, 0x14, 0x00, 0x00, 0x00,
    0x01, 0x00, 0x00, 0x00, 0x30, 0x00, 0x00, 0x00, 0x04, 0x00, 0x04, 0x00,
    0x04, 0x00, 0x00, 0x00, 0x1E, 0x00, 0x00, 0x00, 0x73, 0x65, 0x72, 0x76,
    0x69, 0x6E, 0x67, 0x5F, 0x64, 0x65, 0x66, 0x61, 0x75, 0x6C, 0x74, 0x5F,
    0x6B, 0x65, 0x72, 0x61, 0x73, 0x5F, 0x74, 0x65, 0x6E, 0x73, 0x6F, 0x72,
    0x3A, 0x30, 0x00, 0x00, 0x02, 0x00, 0x00, 0x00, 0x20, 0x00, 0x00, 0x00,
    0x1C, 0x00, 0x00, 0x00, 0x04, 0x00, 0x00, 0x00, 0x40, 0x00, 0x00, 0x00,
    0x24, 0x00, 0x00, 0x00, 0x14, 0x00, 0x00, 0x00, 0x04, 0x00, 0x00, 0x00,
    0xDC, 0xFF, 0xFF, 0xFF, 0x0E, 0x00, 0x00, 0x00, 0x00, 0x00, 0x00, 0x0E,
    0xE8, 0xFF, 0xFF, 0xFF, 0x09, 0x00, 0x00, 0x00, 0x00, 0x00, 0x00, 0x09,
    0xF4, 0xFF, 0xFF, 0xFF, 0x12, 0x00, 0x00, 0x00, 0x00, 0x00, 0x00, 0x12,
    0x0C, 0x00, 0x0C, 0x00, 0x0B, 0x00, 0x00, 0x00, 0x00, 0x00, 0x04, 0x00,
    0x0C, 0x00, 0x00, 0x00, 0x29, 0x00, 0x00, 0x00, 0x00, 0x00, 0x00, 0x29
};

static const unsigned int mlp_model_tflite_len = 8760;
